{
  "version": "1.0",
  "truncation": null,
  "padding": null,
  "added_tokens": [],
  "normalizer": null,
  "pre_tokenizer": {
    "type": "Whitespace"
  },
  "post_processor": null,
  "decoder": null,
  "model": {
    "type": "WordPiece",
    "unk_token": "[UNK]",
    "continuing_subword_prefix": "##",
    "max_input_chars_per_word": 100,
    "vocab": {
      "!": 0,
      "\"": 1,
      "#": 2,
      "$": 3,
      "%": 4,
      "&": 5,
      "'": 6,
      "(": 7,
      ")": 8,
      "*": 9,
      "+": 10,
      ",": 11,
      "-": 12,
      ".": 13,
      "/": 14,
      "0": 15,
      "1": 16,
      "2": 17,
      "3": 18,
      "4": 19,
      "5": 20,
      "6": 21,
      "7": 22,
      "8": 23,
      "9": 24,
      ":": 25,
      ";": 26,
      "<": 27,
      "=": 28,
      ">": 29,
      "?": 30,
      "@": 31,
      "A": 32,
      "B": 33,
      "C": 34,
      "D": 35,
      "E": 36,
      "F": 37,
      "G": 38,
      "H": 39,
      "I": 40,
      "J": 41,
      "K": 42,
      "L": 43,
      "M": 44,
      "N": 45,
      "O": 46,
      "P": 47,
      "Q": 48,
      "R": 49,
      "S": 50,
      "T": 51,
      "U": 52,
      "V": 53,
      "W": 54,
      "X": 55,
      "Y": 56,
      "Z": 57,
      "[": 58,
      "\\": 59,
      "]": 60,
      "^": 61,
      "_": 62,
      "`": 63,
      "a": 64,
      "b": 65,
      "c": 66,
      "d": 67,
      "e": 68,
      "f": 69,
      "g": 70,
      "h": 71,
      "i": 72,
      "j": 73,
      "k": 74,
      "l": 75,
      "m": 76,
      "n": 77,
      "o": 78,
      "p": 79,
      "q": 80,
      "r": 81,
      "s": 82,
      "t": 83,
      "u": 84,
      "v": 85,
      "w": 86,
      "x": 87,
      "y": 88,
      "z": 89,
      "{": 90,
      "|": 91,
      "}": 92,
      "~": 93,
      "©": 94,
      "«": 95,
      "®": 96,
      "°": 97,
      "±": 98,
      "²": 99,
      "³": 100,
      "µ": 101,
      "·": 102,
      "»": 103,
      "¿": 104,
      "À": 105,
      "Å": 106,
      "×": 107,
      "à": 108,
      "á": 109,
      "ç": 110,
      "è": 111,
      "é": 112,
      "ê": 113,
      "ì": 114,
      "ó": 115,
      "ô": 116,
      "÷": 117,
      "ú": 118,
      "Ā": 119,
      "ā": 120,
      "ă": 121,
      "đ": 122,
      "ě": 123,
      "ī": 124,
      "ǎ": 125,
      "ˀ": 126,
      "˚": 127,
      "̀": 128,
      "́": 129,
      "̃": 130,
      "̄": 131,
      "̆": 132,
      "̈": 133,
      "̊": 134,
      "̌": 135,
      "̎": 136,
      "̐": 137,
      "̑": 138,
      "̣": 139,
      "̥": 140,
      "͢": 141,
      "·": 142,
      "Β": 143,
      "Δ": 144,
      "Κ": 145,
      "α": 146,
      "μ": 147,
      "ન": 148,
      "પ": 149,
      "લ": 150,
      "ก": 151,
      "ข": 152,
      "ค": 153,
      "ง": 154,
      "จ": 155,
      "ฉ": 156,
      "ช": 157,
      "ซ": 158,
      "ญ": 159,
      "ณ": 160,
      "ด": 161,
      "ต": 162,
      "ถ": 163,
      "ท": 164,
      "ธ": 165,
      "น": 166,
      "บ": 167,
      "ป": 168,
      "ผ": 169,
      "ฝ": 170,
      "พ": 171,
      "ฟ": 172,
      "ภ": 173,
      "ม": 174,
      "ย": 175,
      "ร": 176,
      "ฤ": 177,
      "ล": 178,
      "ว": 179,
      "ศ": 180,
      "ษ": 181,
      "ส": 182,
      "ห": 183,
      "อ": 184,
      "ฯ": 185,
      "ะ": 186,
      "ั": 187,
      "า": 188,
      "ิ": 189,
      "ี": 190,
      "ึ": 191,
      "ื": 192,
      "ุ": 193,
      "ู": 194,
      "เ": 195,
      "แ": 196,
      "โ": 197,
      "ใ": 198,
      "ไ": 199,
      "ๆ": 200,
      "็": 201,
      "่": 202,
      "้": 203,
      "๋": 204,
      "์": 205,
      "ํ": 206,
      "ᄀ": 207,
      "ᄁ": 208,
      "ᄂ": 209,
      "ᄃ": 210,
      "ᆞ": 211,
      "ᆢ": 212,
      "᛫": 213,
      "​": 214,
      "‍": 215,
      "‎": 216,
      "–": 217,
      "—": 218,
      "‘": 219,
      "’": 220,
      "“": 221,
      "”": 222,
      "•": 223,
      "‣": 224,
      "․": 225,
      "‥": 226,
      "…": 227,
      "‧": 228,
      "′": 229,
      "″": 230,
      "※": 231,
      "₩": 232,
      "⃕": 233,
      "⃞": 234,
      "℃": 235,
      "⅔": 236,
      "Ⅰ": 237,
      "Ⅱ": 238,
      "Ⅲ": 239,
      "Ⅳ": 240,
      "Ⅴ": 241,
      "Ⅵ": 242,
      "Ⅶ": 243,
      "ⅰ": 244,
      "ⅱ": 245,
      "ⅲ": 246,
      "ⅳ": 247,
      "ⅴ": 248,
      "ⅵ": 249,
      "ⅶ": 250,
      "ⅷ": 251,
      "←": 252,
      "↑": 253,
      "→": 254,
      "↓": 255,
      "↔": 256,
      "↘": 257,
      "↙": 258,
      "↞": 259,
      "↠": 260,
      "⇉": 261,
      "⇋": 262,
      "⇌": 263,
      "⇐": 264,
      "⇒": 265,
      "⇔": 266,
      "⇚": 267,
      "⇛": 268,
      "⇢": 269,
      "⇥": 270,
      "⇨": 271,
      "⇩": 272,
      "∙": 273,
      "√": 274,
      "∴": 275,
      "∵": 276,
      "∼": 277,
      "≠": 278,
      "≪": 279,
      "≫": 280,
      "⊝": 281,
      "⋅": 282,
      "①": 283,
      "②": 284,
      "③": 285,
      "④": 286,
      "⑤": 287,
      "⑥": 288,
      "⑦": 289,
      "⑧": 290,
      "⑨": 291,
      "⑩": 292,
      "⑪": 293,
      "⑫": 294,
      "⑬": 295,
      "⑭": 296,
      "⑮": 297,
      "⑯": 298,
      "⑰": 299,
      "⑱": 300,
      "⑲": 301,
      "⑳": 302,
      "⑴": 303,
      "⑵": 304,
      "⑶": 305,
      "⑷": 306,
      "⑸": 307,
      "⑹": 308,
      "⑺": 309,
      "⑻": 310,
      "ⓒ": 311,
      "ⓛ": 312,
      "⓵": 313,
      "⓶": 314,
      "⓷": 315,
      "⓸": 316,
      "⓹": 317,
      "━": 318,
      "│": 319,
      "┌": 320,
      "┐": 321,
      "└": 322,
      "┘": 323,
      "├": 324,
      "■": 325,
      "□": 326,
      "▢": 327,
      "▣": 328,
      "▪": 329,
      "▲": 330,
      "△": 331,
      "▶": 332,
      "▷": 333,
      "▼": 334,
      "◀": 335,
      "◆": 336,
      "◇": 337,
      "◈": 338,
      "◉": 339,
      "◊": 340,
      "○": 341,
      "◎": 342,
      "●": 343,
      "◐": 344,
      "◦": 345,
      "◯": 346,
      "◾": 347,
      "☀": 348,
      "★": 349,
      "☆": 350,
      "☎": 351,
      "☏": 352,
      "☓": 353,
      "☚": 354,
      "☛": 355,
      "☜": 356,
      "☞": 357,
      "☠": 358,
      "☹": 359,
      "☻": 360,
      "♀": 361,
      "♠": 362,
      "♡": 363,
      "♣": 364,
      "♤": 365,
      "♥": 366,
      "♧": 367,
      "♪": 368,
      "♬": 369,
      "✈": 370,
      "✋": 371,
      "✔": 372,
      "❍": 373,
      "❏": 374,
      "❗": 375,
      "❤": 376,
      "❶": 377,
      "❷": 378,
      "❸": 379,
      "❹": 380,
      "❺": 381,
      "➀": 382,
      "➁": 383,
      "➂": 384,
      "➃": 385,
      "➊": 386,
      "➋": 387,
      "➌": 388,
      "➍": 389,
      "➡": 390,
      "⟩": 391,
      "⦁": 392,
      "⭐": 393,
      "、": 394,
      "〇": 395,
      "〈": 396,
      "〉": 397,
      "《": 398,
      "》": 399,
      "「": 400,
      "」": 401,
      "『": 402,
      "』": 403,
      "【": 404,
      "】": 405,
      "〔": 406,
      "〕": 407,
      "〘": 408,
      "〙": 409,
      "〚": 410,
      "〛": 411,
      "〮": 412,
      "い": 413,
      "う": 414,
      "え": 415,
      "か": 416,
      "く": 417,
      "こ": 418,
      "ご": 419,
      "さ": 420,
      "し": 421,
      "じ": 422,
      "た": 423,
      "っ": 424,
      "つ": 425,
      "て": 426,
      "と": 427,
      "ど": 428,
      "な": 429,
      "に": 430,
      "の": 431,
      "は": 432,
      "ば": 433,
      "み": 434,
      "も": 435,
      "ゅ": 436,
      "ょ": 437,
      "り": 438,
      "る": 439,
      "れ": 440,
      "ろ": 441,
      "を": 442,
      "ん": 443,
      "゚": 444,
      "ア": 445,
      "イ": 446,
      "オ": 447,
      "カ": 448,
      "ク": 449,
      "グ": 450,
      "シ": 451,
      "ス": 452,
      "ヂ": 453,
      "ト": 454,
      "ド": 455,
      "ナ": 456,
      "フ": 457,
      "ブ": 458,
      "ポ": 459,
      "マ": 460,
      "メ": 461,
      "ラ": 462,
      "リ": 463,
      "ル": 464,
      "ン": 465,
      "・": 466,
      "ー": 467,
      "ㄱ": 468,
      "ㄲ": 469,
      "ㄴ": 470,
      "ㄷ": 471,
      "ㄸ": 472,
      "ㄹ": 473,
      "ㅁ": 474,
      "ㅂ": 475,
      "ㅃ": 476,
      "ㅄ": 477,
      "ㅅ": 478,
      "ㅆ": 479,
      "ㅇ": 480,
      "ㅈ": 481,
      "ㅉ": 482,
      "ㅊ": 483,
      "ㅋ": 484,
      "ㅌ": 485,
      "ㅍ": 486,
      "ㅎ": 487,
      "ㅏ": 488,
      "ㅐ": 489,
      "ㅑ": 490,
      "ㅒ": 491,
      "ㅓ": 492,
      "ㅔ": 493,
      "ㅕ": 494,
      "ㅖ": 495,
      "ㅗ": 496,
      "ㅙ": 497,
      "ㅛ": 498,
      "ㅜ": 499,
      "ㅠ": 500,
      "ㅡ": 501,
      "ㅣ": 502,
      "ㆍ": 503,
      "㈜": 504,
      "㉠": 505,
      "㉡": 506,
      "㉢": 507,
      "㉮": 508,
      "㉯": 509,
      "㉰": 510,
      "㉱": 511,
      "㉶": 512,
      "㎍": 513,
      "㎏": 514,
      "㎖": 515,
      "㎛": 516,
      "㎜": 517,
      "㎞": 518,
      "㎡": 519,
      "㎢": 520,
      "㎥": 521,
      "㎾": 522,
      "㎿": 523,
      "㏊": 524,
      "㏓": 525,
      "一": 526,
      "三": 527,
      "上": 528,
      "下": 529,
      "不": 530,
      "世": 531,
      "丙": 532,
      "两": 533,
      "中": 534,
      "丸": 535,
      "主": 536,
      "乃": 537,
      "久": 538,
      "之": 539,
      "乘": 540,
      "乙": 541,
      "也": 542,
      "乾": 543,
      "亂": 544,
      "事": 545,
      "二": 546,
      "互": 547,
      "五": 548,
      "井": 549,
      "亚": 550,
      "亡": 551,
      "京": 552,
      "人": 553,
      "仁": 554,
      "今": 555,
      "介": 556,
      "他": 557,
      "付": 558,
      "仙": 559,
      "代": 560,
      "令": 561,
      "以": 562,
      "仰": 563,
      "件": 564,
      "任": 565,
      "伊": 566,
      "休": 567,
      "优": 568,
      "伯": 569,
      "位": 570,
      "佛": 571,
      "作": 572,
      "佳": 573,
      "來": 574,
      "例": 575,
      "侶": 576,
      "俊": 577,
      "保": 578,
      "俟": 579,
      "信": 580,
      "修": 581,
      "個": 582,
      "倍": 583,
      "候": 584,
      "偎": 585,
      "偏": 586,
      "備": 587,
      "傳": 588,
      "傷": 589,
      "僞": 590,
      "僧": 591,
      "價": 592,
      "儒": 593,
      "元": 594,
      "兄": 595,
      "先": 596,
      "兒": 597,
      "入": 598,
      "內": 599,
      "全": 600,
      "兩": 601,
      "公": 602,
      "六": 603,
      "兰": 604,
      "共": 605,
      "兵": 606,
      "具": 607,
      "典": 608,
      "册": 609,
      "再": 610,
      "冒": 611,
      "冰": 612,
      "凍": 613,
      "凰": 614,
      "凶": 615,
      "出": 616,
      "分": 617,
      "切": 618,
      "刊": 619,
      "刑": 620,
      "判": 621,
      "別": 622,
      "利": 623,
      "制": 624,
      "刻": 625,
      "則": 626,
      "前": 627,
      "副": 628,
      "創": 629,
      "劇": 630,
      "劈": 631,
      "力": 632,
      "功": 633,
      "加": 634,
      "勅": 635,
      "勇": 636,
      "動": 637,
      "務": 638,
      "勝": 639,
      "募": 640,
      "勤": 641,
      "勳": 642,
      "化": 643,
      "北": 644,
      "匪": 645,
      "匹": 646,
      "区": 647,
      "區": 648,
      "十": 649,
      "千": 650,
      "半": 651,
      "卓": 652,
      "協": 653,
      "南": 654,
      "占": 655,
      "厚": 656,
      "原": 657,
      "去": 658,
      "參": 659,
      "及": 660,
      "友": 661,
      "反": 662,
      "取": 663,
      "受": 664,
      "口": 665,
      "古": 666,
      "句": 667,
      "只": 668,
      "可": 669,
      "台": 670,
      "史": 671,
      "右": 672,
      "合": 673,
      "吉": 674,
      "同": 675,
      "名": 676,
      "吏": 677,
      "君": 678,
      "吟": 679,
      "吳": 680,
      "吸": 681,
      "告": 682,
      "周": 683,
      "命": 684,
      "和": 685,
      "品": 686,
      "員": 687,
      "哭": 688,
      "哲": 689,
      "唐": 690,
      "商": 691,
      "善": 692,
      "喆": 693,
      "喪": 694,
      "営": 695,
      "器": 696,
      "嚴": 697,
      "囚": 698,
      "四": 699,
      "回": 700,
      "因": 701,
      "国": 702,
      "國": 703,
      "園": 704,
      "圓": 705,
      "土": 706,
      "在": 707,
      "地": 708,
      "圳": 709,
      "坊": 710,
      "城": 711,
      "域": 712,
      "基": 713,
      "堂": 714,
      "報": 715,
      "場": 716,
      "塔": 717,
      "塘": 718,
      "塚": 719,
      "塵": 720,
      "境": 721,
      "增": 722,
      "壇": 723,
      "士": 724,
      "壬": 725,
      "壽": 726,
      "変": 727,
      "外": 728,
      "多": 729,
      "夢": 730,
      "大": 731,
      "天": 732,
      "太": 733,
      "失": 734,
      "奇": 735,
      "奉": 736,
      "奪": 737,
      "女": 738,
      "如": 739,
      "妾": 740,
      "始": 741,
      "姑": 742,
      "姓": 743,
      "委": 744,
      "姜": 745,
      "婚": 746,
      "嫁": 747,
      "子": 748,
      "字": 749,
      "存": 750,
      "學": 751,
      "守": 752,
      "安": 753,
      "宋": 754,
      "宗": 755,
      "官": 756,
      "定": 757,
      "宜": 758,
      "宮": 759,
      "害": 760,
      "家": 761,
      "容": 762,
      "富": 763,
      "察": 764,
      "實": 765,
      "寧": 766,
      "審": 767,
      "寬": 768,
      "寶": 769,
      "寺": 770,
      "將": 771,
      "尊": 772,
      "對": 773,
      "小": 774,
      "尖": 775,
      "尹": 776,
      "局": 777,
      "屬": 778,
      "山": 779,
      "岡": 780,
      "岸": 781,
      "峯": 782,
      "島": 783,
      "崇": 784,
      "崔": 785,
      "川": 786,
      "州": 787,
      "工": 788,
      "左": 789,
      "市": 790,
      "帝": 791,
      "師": 792,
      "幅": 793,
      "幌": 794,
      "幕": 795,
      "平": 796,
      "年": 797,
      "底": 798,
      "府": 799,
      "度": 800,
      "庫": 801,
      "庵": 802,
      "廈": 803,
      "廣": 804,
      "廳": 805,
      "延": 806,
      "建": 807,
      "弊": 808,
      "式": 809,
      "引": 810,
      "弟": 811,
      "强": 812,
      "律": 813,
      "後": 814,
      "得": 815,
      "從": 816,
      "御": 817,
      "復": 818,
      "德": 819,
      "心": 820,
      "必": 821,
      "忍": 822,
      "志": 823,
      "忘": 824,
      "忙": 825,
      "念": 826,
      "怒": 827,
      "思": 828,
      "怠": 829,
      "急": 830,
      "性": 831,
      "怨": 832,
      "恋": 833,
      "恒": 834,
      "恥": 835,
      "恨": 836,
      "息": 837,
      "悔": 838,
      "悚": 839,
      "情": 840,
      "惑": 841,
      "惟": 842,
      "惠": 843,
      "惡": 844,
      "想": 845,
      "惻": 846,
      "意": 847,
      "愚": 848,
      "愛": 849,
      "感": 850,
      "愧": 851,
      "態": 852,
      "慕": 853,
      "慮": 854,
      "慶": 855,
      "憲": 856,
      "懈": 857,
      "應": 858,
      "懐": 859,
      "懲": 860,
      "戍": 861,
      "成": 862,
      "我": 863,
      "戒": 864,
      "戰": 865,
      "房": 866,
      "所": 867,
      "手": 868,
      "扶": 869,
      "抗": 870,
      "折": 871,
      "披": 872,
      "拂": 873,
      "拒": 874,
      "拜": 875,
      "指": 876,
      "推": 877,
      "提": 878,
      "揚": 879,
      "援": 880,
      "搬": 881,
      "撮": 882,
      "據": 883,
      "支": 884,
      "改": 885,
      "放": 886,
      "政": 887,
      "故": 888,
      "效": 889,
      "敍": 890,
      "敎": 891,
      "救": 892,
      "敗": 893,
      "敘": 894,
      "數": 895,
      "文": 896,
      "斥": 897,
      "新": 898,
      "斷": 899,
      "方": 900,
      "施": 901,
      "族": 902,
      "日": 903,
      "昇": 904,
      "昊": 905,
      "昌": 906,
      "明": 907,
      "易": 908,
      "星": 909,
      "昭": 910,
      "是": 911,
      "昻": 912,
      "時": 913,
      "晉": 914,
      "晋": 915,
      "晴": 916,
      "暮": 917,
      "暴": 918,
      "曰": 919,
      "曲": 920,
      "書": 921,
      "替": 922,
      "最": 923,
      "會": 924,
      "月": 925,
      "有": 926,
      "服": 927,
      "望": 928,
      "朝": 929,
      "木": 930,
      "未": 931,
      "末": 932,
      "本": 933,
      "札": 934,
      "朱": 935,
      "朴": 936,
      "李": 937,
      "杜": 938,
      "杯": 939,
      "東": 940,
      "松": 941,
      "林": 942,
      "果": 943,
      "某": 944,
      "染": 945,
      "柳": 946,
      "査": 947,
      "校": 948,
      "核": 949,
      "根": 950,
      "格": 951,
      "栽": 952,
      "案": 953,
      "梅": 954,
      "條": 955,
      "梨": 956,
      "棄": 957,
      "椅": 958,
      "植": 959,
      "業": 960,
      "榮": 961,
      "槇": 962,
      "槪": 963,
      "槿": 964,
      "樂": 965,
      "樹": 966,
      "樽": 967,
      "機": 968,
      "檢": 969,
      "權": 970,
      "次": 971,
      "欺": 972,
      "歌": 973,
      "歎": 974,
      "正": 975,
      "步": 976,
      "歷": 977,
      "死": 978,
      "殺": 979,
      "殿": 980,
      "母": 981,
      "氏": 982,
      "民": 983,
      "氣": 984,
      "水": 985,
      "永": 986,
      "汚": 987,
      "汝": 988,
      "江": 989,
      "決": 990,
      "沈": 991,
      "河": 992,
      "治": 993,
      "泉": 994,
      "法": 995,
      "波": 996,
      "泰": 997,
      "洑": 998,
      "洞": 999,
      "津": 1000,
      "洲": 1001,
      "活": 1002,
      "派": 1003,
      "浦": 1004,
      "浮": 1005,
      "海": 1006,
      "淑": 1007,
      "淚": 1008,
      "淫": 1009,
      "深": 1010,
      "淳": 1011,
      "淸": 1012,
      "渡": 1013,
      "測": 1014,
      "渴": 1015,
      "湖": 1016,
      "源": 1017,
      "準": 1018,
      "滅": 1019,
      "漆": 1020,
      "演": 1021,
      "漢": 1022,
      "潜": 1023,
      "潮": 1024,
      "澳": 1025,
      "濟": 1026,
      "濠": 1027,
      "火": 1028,
      "災": 1029,
      "炳": 1030,
      "烹": 1031,
      "無": 1032,
      "煙": 1033,
      "熙": 1034,
      "熱": 1035,
      "燈": 1036,
      "燭": 1037,
      "爲": 1038,
      "爵": 1039,
      "父": 1040,
      "版": 1041,
      "牛": 1042,
      "物": 1043,
      "特": 1044,
      "犬": 1045,
      "犯": 1046,
      "狗": 1047,
      "狡": 1048,
      "猛": 1049,
      "猶": 1050,
      "獄": 1051,
      "獨": 1052,
      "獸": 1053,
      "獻": 1054,
      "玉": 1055,
      "王": 1056,
      "班": 1057,
      "現": 1058,
      "理": 1059,
      "瑞": 1060,
      "璽": 1061,
      "甘": 1062,
      "生": 1063,
      "産": 1064,
      "用": 1065,
      "田": 1066,
      "由": 1067,
      "甲": 1068,
      "申": 1069,
      "男": 1070,
      "画": 1071,
      "界": 1072,
      "畓": 1073,
      "留": 1074,
      "異": 1075,
      "當": 1076,
      "疆": 1077,
      "疏": 1078,
      "病": 1079,
      "療": 1080,
      "發": 1081,
      "白": 1082,
      "百": 1083,
      "的": 1084,
      "益": 1085,
      "盛": 1086,
      "盜": 1087,
      "監": 1088,
      "目": 1089,
      "盲": 1090,
      "相": 1091,
      "省": 1092,
      "眞": 1093,
      "眼": 1094,
      "督": 1095,
      "睿": 1096,
      "矣": 1097,
      "知": 1098,
      "矯": 1099,
      "石": 1100,
      "砂": 1101,
      "破": 1102,
      "硬": 1103,
      "碍": 1104,
      "碑": 1105,
      "碩": 1106,
      "磁": 1107,
      "社": 1108,
      "祉": 1109,
      "祖": 1110,
      "祝": 1111,
      "神": 1112,
      "禁": 1113,
      "禍": 1114,
      "福": 1115,
      "禮": 1116,
      "秀": 1117,
      "私": 1118,
      "秘": 1119,
      "移": 1120,
      "稅": 1121,
      "種": 1122,
      "積": 1123,
      "空": 1124,
      "窒": 1125,
      "窮": 1126,
      "竊": 1127,
      "立": 1128,
      "章": 1129,
      "童": 1130,
      "端": 1131,
      "竹": 1132,
      "第": 1133,
      "等": 1134,
      "答": 1135,
      "算": 1136,
      "箱": 1137,
      "範": 1138,
      "築": 1139,
      "籍": 1140,
      "米": 1141,
      "粕": 1142,
      "精": 1143,
      "紀": 1144,
      "約": 1145,
      "紋": 1146,
      "紙": 1147,
      "級": 1148,
      "紫": 1149,
      "紹": 1150,
      "終": 1151,
      "結": 1152,
      "給": 1153,
      "統": 1154,
      "絶": 1155,
      "經": 1156,
      "緊": 1157,
      "緖": 1158,
      "線": 1159,
      "縛": 1160,
      "總": 1161,
      "續": 1162,
      "罔": 1163,
      "罪": 1164,
      "置": 1165,
      "罰": 1166,
      "羅": 1167,
      "美": 1168,
      "羞": 1169,
      "義": 1170,
      "考": 1171,
      "者": 1172,
      "而": 1173,
      "耕": 1174,
      "耳": 1175,
      "聖": 1176,
      "聞": 1177,
      "聲": 1178,
      "職": 1179,
      "聽": 1180,
      "肅": 1181,
      "肉": 1182,
      "肥": 1183,
      "育": 1184,
      "胎": 1185,
      "胞": 1186,
      "脂": 1187,
      "脈": 1188,
      "脫": 1189,
      "腐": 1190,
      "膏": 1191,
      "臣": 1192,
      "臥": 1193,
      "臨": 1194,
      "自": 1195,
      "致": 1196,
      "與": 1197,
      "興": 1198,
      "舊": 1199,
      "舞": 1200,
      "般": 1201,
      "舶": 1202,
      "船": 1203,
      "艦": 1204,
      "色": 1205,
      "芥": 1206,
      "花": 1207,
      "若": 1208,
      "苦": 1209,
      "英": 1210,
      "茶": 1211,
      "草": 1212,
      "莞": 1213,
      "華": 1214,
      "菴": 1215,
      "萬": 1216,
      "落": 1217,
      "蓋": 1218,
      "蔑": 1219,
      "蔽": 1220,
      "薰": 1221,
      "藏": 1222,
      "藤": 1223,
      "藥": 1224,
      "蘇": 1225,
      "蘭": 1226,
      "處": 1227,
      "號": 1228,
      "血": 1229,
      "行": 1230,
      "術": 1231,
      "衛": 1232,
      "衣": 1233,
      "表": 1234,
      "衫": 1235,
      "袋": 1236,
      "裁": 1237,
      "装": 1238,
      "補": 1239,
      "複": 1240,
      "褻": 1241,
      "襟": 1242,
      "襲": 1243,
      "西": 1244,
      "要": 1245,
      "見": 1246,
      "規": 1247,
      "親": 1248,
      "角": 1249,
      "解": 1250,
      "言": 1251,
      "計": 1252,
      "訓": 1253,
      "記": 1254,
      "設": 1255,
      "許": 1256,
      "訴": 1257,
      "診": 1258,
      "詐": 1259,
      "詩": 1260,
      "誘": 1261,
      "語": 1262,
      "誰": 1263,
      "課": 1264,
      "調": 1265,
      "請": 1266,
      "論": 1267,
      "講": 1268,
      "謝": 1269,
      "證": 1270,
      "識": 1271,
      "警": 1272,
      "譯": 1273,
      "議": 1274,
      "護": 1275,
      "讀": 1276,
      "讐": 1277,
      "讓": 1278,
      "诚": 1279,
      "谷": 1280,
      "豁": 1281,
      "豊": 1282,
      "財": 1283,
      "貧": 1284,
      "貨": 1285,
      "貪": 1286,
      "責": 1287,
      "貴": 1288,
      "費": 1289,
      "資": 1290,
      "賞": 1291,
      "賢": 1292,
      "賦": 1293,
      "赤": 1294,
      "超": 1295,
      "趙": 1296,
      "路": 1297,
      "踐": 1298,
      "蹟": 1299,
      "身": 1300,
      "車": 1301,
      "軍": 1302,
      "転": 1303,
      "載": 1304,
      "輕": 1305,
      "輛": 1306,
      "輝": 1307,
      "輪": 1308,
      "輸": 1309,
      "轉": 1310,
      "轍": 1311,
      "轮": 1312,
      "辭": 1313,
      "辰": 1314,
      "農": 1315,
      "返": 1316,
      "述": 1317,
      "追": 1318,
      "退": 1319,
      "送": 1320,
      "通": 1321,
      "造": 1322,
      "週": 1323,
      "進": 1324,
      "逸": 1325,
      "遇": 1326,
      "運": 1327,
      "過": 1328,
      "道": 1329,
      "遡": 1330,
      "遷": 1331,
      "選": 1332,
      "遺": 1333,
      "邑": 1334,
      "邦": 1335,
      "邪": 1336,
      "邱": 1337,
      "郞": 1338,
      "郡": 1339,
      "部": 1340,
      "都": 1341,
      "鄕": 1342,
      "酒": 1343,
      "酬": 1344,
      "酵": 1345,
      "酸": 1346,
      "醫": 1347,
      "里": 1348,
      "重": 1349,
      "野": 1350,
      "量": 1351,
      "金": 1352,
      "釣": 1353,
      "鉄": 1354,
      "銃": 1355,
      "鋈": 1356,
      "錄": 1357,
      "錢": 1358,
      "鐘": 1359,
      "鐵": 1360,
      "鑑": 1361,
      "長": 1362,
      "門": 1363,
      "開": 1364,
      "間": 1365,
      "閣": 1366,
      "關": 1367,
      "防": 1368,
      "阿": 1369,
      "附": 1370,
      "陞": 1371,
      "院": 1372,
      "除": 1373,
      "陰": 1374,
      "陳": 1375,
      "陸": 1376,
      "隊": 1377,
      "障": 1378,
      "隨": 1379,
      "隱": 1380,
      "離": 1381,
      "難": 1382,
      "雨": 1383,
      "雲": 1384,
      "電": 1385,
      "需": 1386,
      "震": 1387,
      "霜": 1388,
      "露": 1389,
      "霹": 1390,
      "靂": 1391,
      "靑": 1392,
      "青": 1393,
      "靖": 1394,
      "非": 1395,
      "面": 1396,
      "革": 1397,
      "鞠": 1398,
      "韓": 1399,
      "音": 1400,
      "韻": 1401,
      "順": 1402,
      "須": 1403,
      "領": 1404,
      "願": 1405,
      "類": 1406,
      "風": 1407,
      "飛": 1408,
      "食": 1409,
      "飮": 1410,
      "飾": 1411,
      "養": 1412,
      "餘": 1413,
      "首": 1414,
      "馬": 1415,
      "駅": 1416,
      "骨": 1417,
      "體": 1418,
      "高": 1419,
      "鬼": 1420,
      "魂": 1421,
      "魚": 1422,
      "鮮": 1423,
      "鳥": 1424,
      "鳳": 1425,
      "鳴": 1426,
      "鹿": 1427,
      "麥": 1428,
      "麻": 1429,
      "黃": 1430,
      "黑": 1431,
      "默": 1432,
      "黙": 1433,
      "黨": 1434,
      "鼎": 1435,
      "鼠": 1436,
      "鼻": 1437,
      "齋": 1438,
      "龜": 1439,
      "꙼": 1440,
      "가": 1441,
      "각": 1442,
      "갂": 1443,
      "간": 1444,
      "갅": 1445,
      "갇": 1446,
      "갈": 1447,
      "갉": 1448,
      "감": 1449,
      "갑": 1450,
      "값": 1451,
      "갓": 1452,
      "갔": 1453,
      "강": 1454,
      "갖": 1455,
      "갗": 1456,
      "갘": 1457,
      "같": 1458,
      "갚": 1459,
      "갛": 1460,
      "개": 1461,
      "객": 1462,
      "갠": 1463,
      "갤": 1464,
      "갬": 1465,
      "갭": 1466,
      "갯": 1467,
      "갰": 1468,
      "갱": 1469,
      "갸": 1470,
      "갹": 1471,
      "걀": 1472,
      "걈": 1473,
      "걍": 1474,
      "걑": 1475,
      "걔": 1476,
      "거": 1477,
      "걱": 1478,
      "건": 1479,
      "걷": 1480,
      "걸": 1481,
      "검": 1482,
      "겁": 1483,
      "겂": 1484,
      "것": 1485,
      "겄": 1486,
      "겅": 1487,
      "겆": 1488,
      "겉": 1489,
      "겋": 1490,
      "게": 1491,
      "겍": 1492,
      "겎": 1493,
      "겐": 1494,
      "겔": 1495,
      "겜": 1496,
      "겝": 1497,
      "겟": 1498,
      "겠": 1499,
      "겡": 1500,
      "겧": 1501,
      "겨": 1502,
      "격": 1503,
      "겪": 1504,
      "견": 1505,
      "결": 1506,
      "겸": 1507,
      "겹": 1508,
      "겻": 1509,
      "겼": 1510,
      "경": 1511,
      "곁": 1512,
      "계": 1513,
      "곅": 1514,
      "곗": 1515,
      "곘": 1516,
      "곙": 1517,
      "고": 1518,
      "곡": 1519,
      "곤": 1520,
      "곧": 1521,
      "골": 1522,
      "곪": 1523,
      "곫": 1524,
      "곯": 1525,
      "곰": 1526,
      "곱": 1527,
      "곳": 1528,
      "공": 1529,
      "곶": 1530,
      "곺": 1531,
      "곻": 1532,
      "과": 1533,
      "곽": 1534,
      "관": 1535,
      "괄": 1536,
      "괌": 1537,
      "괍": 1538,
      "광": 1539,
      "괘": 1540,
      "괜": 1541,
      "괞": 1542,
      "괭": 1543,
      "괴": 1544,
      "괸": 1545,
      "굇": 1546,
      "굉": 1547,
      "교": 1548,
      "굔": 1549,
      "굡": 1550,
      "굣": 1551,
      "굥": 1552,
      "구": 1553,
      "국": 1554,
      "군": 1555,
      "굳": 1556,
      "굴": 1557,
      "굵": 1558,
      "굶": 1559,
      "굷": 1560,
      "굻": 1561,
      "굼": 1562,
      "굽": 1563,
      "굿": 1564,
      "궁": 1565,
      "궂": 1566,
      "궃": 1567,
      "궈": 1568,
      "권": 1569,
      "궍": 1570,
      "궐": 1571,
      "궜": 1572,
      "궝": 1573,
      "궤": 1574,
      "궴": 1575,
      "귀": 1576,
      "귁": 1577,
      "귄": 1578,
      "귈": 1579,
      "귑": 1580,
      "귓": 1581,
      "규": 1582,
      "귝": 1583,
      "균": 1584,
      "귤": 1585,
      "귬": 1586,
      "그": 1587,
      "극": 1588,
      "근": 1589,
      "귿": 1590,
      "글": 1591,
      "긁": 1592,
      "긇": 1593,
      "금": 1594,
      "급": 1595,
      "긋": 1596,
      "긍": 1597,
      "긑": 1598,
      "긒": 1599,
      "긔": 1600,
      "기": 1601,
      "긱": 1602,
      "긴": 1603,
      "길": 1604,
      "김": 1605,
      "깁": 1606,
      "깂": 1607,
      "깃": 1608,
      "깄": 1609,
      "깅": 1610,
      "깆": 1611,
      "깉": 1612,
      "깊": 1613,
      "까": 1614,
      "깍": 1615,
      "깎": 1616,
      "깐": 1617,
      "깓": 1618,
      "깔": 1619,
      "깜": 1620,
      "깝": 1621,
      "깞": 1622,
      "깟": 1623,
      "깠": 1624,
      "깡": 1625,
      "깢": 1626,
      "깤": 1627,
      "깥": 1628,
      "깨": 1629,
      "깬": 1630,
      "깰": 1631,
      "깻": 1632,
      "깼": 1633,
      "깽": 1634,
      "꺄": 1635,
      "꺠": 1636,
      "꺼": 1637,
      "꺽": 1638,
      "꺾": 1639,
      "껀": 1640,
      "껄": 1641,
      "껌": 1642,
      "껍": 1643,
      "껏": 1644,
      "껐": 1645,
      "껑": 1646,
      "께": 1647,
      "껙": 1648,
      "껜": 1649,
      "껬": 1650,
      "껴": 1651,
      "꼄": 1652,
      "꼅": 1653,
      "꼇": 1654,
      "꼈": 1655,
      "꼐": 1656,
      "꼬": 1657,
      "꼭": 1658,
      "꼰": 1659,
      "꼴": 1660,
      "꼹": 1661,
      "꼼": 1662,
      "꼽": 1663,
      "꼿": 1664,
      "꽁": 1665,
      "꽂": 1666,
      "꽃": 1667,
      "꽈": 1668,
      "꽉": 1669,
      "꽐": 1670,
      "꽝": 1671,
      "꽤": 1672,
      "꽥": 1673,
      "꽬": 1674,
      "꽹": 1675,
      "꾀": 1676,
      "꾁": 1677,
      "꾐": 1678,
      "꾜": 1679,
      "꾸": 1680,
      "꾹": 1681,
      "꾼": 1682,
      "꾾": 1683,
      "꿀": 1684,
      "꿃": 1685,
      "꿇": 1686,
      "꿈": 1687,
      "꿉": 1688,
      "꿋": 1689,
      "꿍": 1690,
      "꿎": 1691,
      "꿏": 1692,
      "꿔": 1693,
      "꿘": 1694,
      "꿧": 1695,
      "꿨": 1696,
      "꿩": 1697,
      "꿰": 1698,
      "꿴": 1699,
      "뀌": 1700,
      "뀐": 1701,
      "뀔": 1702,
      "뀜": 1703,
      "뀝": 1704,
      "뀨": 1705,
      "끄": 1706,
      "끈": 1707,
      "끊": 1708,
      "끋": 1709,
      "끌": 1710,
      "끍": 1711,
      "끓": 1712,
      "끔": 1713,
      "끕": 1714,
      "끗": 1715,
      "끙": 1716,
      "끚": 1717,
      "끝": 1718,
      "끼": 1719,
      "끽": 1720,
      "낀": 1721,
      "낄": 1722,
      "낌": 1723,
      "낍": 1724,
      "낑": 1725,
      "나": 1726,
      "낙": 1727,
      "낚": 1728,
      "난": 1729,
      "낟": 1730,
      "날": 1731,
      "낡": 1732,
      "남": 1733,
      "납": 1734,
      "낫": 1735,
      "났": 1736,
      "낭": 1737,
      "낮": 1738,
      "낯": 1739,
      "낱": 1740,
      "낲": 1741,
      "낳": 1742,
      "내": 1743,
      "낵": 1744,
      "낸": 1745,
      "낼": 1746,
      "냄": 1747,
      "냅": 1748,
      "냇": 1749,
      "냈": 1750,
      "냉": 1751,
      "냐": 1752,
      "냑": 1753,
      "냔": 1754,
      "냘": 1755,
      "냠": 1756,
      "냥": 1757,
      "냦": 1758,
      "냬": 1759,
      "너": 1760,
      "넉": 1761,
      "넋": 1762,
      "넌": 1763,
      "넎": 1764,
      "널": 1765,
      "넒": 1766,
      "넓": 1767,
      "넔": 1768,
      "넗": 1769,
      "넘": 1770,
      "넙": 1771,
      "넚": 1772,
      "넛": 1773,
      "넜": 1774,
      "넝": 1775,
      "넞": 1776,
      "넣": 1777,
      "네": 1778,
      "넥": 1779,
      "넨": 1780,
      "넬": 1781,
      "넴": 1782,
      "넵": 1783,
      "넷": 1784,
      "넸": 1785,
      "넹": 1786,
      "녀": 1787,
      "녁": 1788,
      "년": 1789,
      "녇": 1790,
      "녈": 1791,
      "념": 1792,
      "녓": 1793,
      "녔": 1794,
      "녕": 1795,
      "녘": 1796,
      "녜": 1797,
      "노": 1798,
      "녹": 1799,
      "논": 1800,
      "녾": 1801,
      "놀": 1802,
      "놈": 1803,
      "놉": 1804,
      "놋": 1805,
      "농": 1806,
      "놐": 1807,
      "높": 1808,
      "놓": 1809,
      "놔": 1810,
      "놥": 1811,
      "놧": 1812,
      "놨": 1813,
      "놯": 1814,
      "놰": 1815,
      "뇌": 1816,
      "뇨": 1817,
      "뇬": 1818,
      "뇸": 1819,
      "뇽": 1820,
      "누": 1821,
      "눅": 1822,
      "눈": 1823,
      "눋": 1824,
      "눌": 1825,
      "눔": 1826,
      "눕": 1827,
      "눗": 1828,
      "눙": 1829,
      "눞": 1830,
      "눠": 1831,
      "눴": 1832,
      "뉘": 1833,
      "뉜": 1834,
      "뉨": 1835,
      "뉩": 1836,
      "뉴": 1837,
      "뉼": 1838,
      "늄": 1839,
      "늉": 1840,
      "느": 1841,
      "늑": 1842,
      "는": 1843,
      "늗": 1844,
      "늘": 1845,
      "늙": 1846,
      "늠": 1847,
      "늡": 1848,
      "늣": 1849,
      "능": 1850,
      "늦": 1851,
      "늨": 1852,
      "늪": 1853,
      "늬": 1854,
      "니": 1855,
      "닉": 1856,
      "닊": 1857,
      "닌": 1858,
      "닏": 1859,
      "닐": 1860,
      "님": 1861,
      "닙": 1862,
      "닛": 1863,
      "닝": 1864,
      "닞": 1865,
      "닣": 1866,
      "다": 1867,
      "닥": 1868,
      "닦": 1869,
      "단": 1870,
      "닫": 1871,
      "달": 1872,
      "닭": 1873,
      "닮": 1874,
      "닯": 1875,
      "닳": 1876,
      "담": 1877,
      "답": 1878,
      "닷": 1879,
      "닸": 1880,
      "당": 1881,
      "닺": 1882,
      "닻": 1883,
      "닼": 1884,
      "닾": 1885,
      "닿": 1886,
      "대": 1887,
      "댁": 1888,
      "댄": 1889,
      "댈": 1890,
      "댐": 1891,
      "댑": 1892,
      "댓": 1893,
      "댔": 1894,
      "댕": 1895,
      "댜": 1896,
      "댠": 1897,
      "댯": 1898,
      "댱": 1899,
      "댸": 1900,
      "더": 1901,
      "덕": 1902,
      "던": 1903,
      "덜": 1904,
      "덞": 1905,
      "덟": 1906,
      "덤": 1907,
      "덥": 1908,
      "덧": 1909,
      "덩": 1910,
      "덪": 1911,
      "덫": 1912,
      "덮": 1913,
      "덯": 1914,
      "데": 1915,
      "덱": 1916,
      "덴": 1917,
      "델": 1918,
      "뎀": 1919,
      "뎁": 1920,
      "뎃": 1921,
      "뎄": 1922,
      "뎅": 1923,
      "뎈": 1924,
      "뎌": 1925,
      "뎟": 1926,
      "뎠": 1927,
      "뎡": 1928,
      "도": 1929,
      "독": 1930,
      "돈": 1931,
      "돋": 1932,
      "돌": 1933,
      "돐": 1934,
      "돔": 1935,
      "돕": 1936,
      "돗": 1937,
      "동": 1938,
      "돚": 1939,
      "돛": 1940,
      "돟": 1941,
      "돠": 1942,
      "돤": 1943,
      "돨": 1944,
      "돼": 1945,
      "됀": 1946,
      "됄": 1947,
      "됌": 1948,
      "됍": 1949,
      "됏": 1950,
      "됐": 1951,
      "되": 1952,
      "됙": 1953,
      "된": 1954,
      "될": 1955,
      "됨": 1956,
      "됩": 1957,
      "됫": 1958,
      "됬": 1959,
      "됭": 1960,
      "됴": 1961,
      "두": 1962,
      "둑": 1963,
      "둔": 1964,
      "둘": 1965,
      "둠": 1966,
      "둡": 1967,
      "둣": 1968,
      "둥": 1969,
      "둬": 1970,
      "둰": 1971,
      "둿": 1972,
      "뒀": 1973,
      "뒈": 1974,
      "뒌": 1975,
      "뒤": 1976,
      "뒷": 1977,
      "뒸": 1978,
      "뒹": 1979,
      "듀": 1980,
      "듈": 1981,
      "듐": 1982,
      "듕": 1983,
      "드": 1984,
      "득": 1985,
      "든": 1986,
      "듣": 1987,
      "들": 1988,
      "듦": 1989,
      "듧": 1990,
      "듬": 1991,
      "듭": 1992,
      "듯": 1993,
      "등": 1994,
      "듲": 1995,
      "듵": 1996,
      "듸": 1997,
      "듼": 1998,
      "딋": 1999,
      "디": 2000,
      "딕": 2001,
      "딘": 2002,
      "딛": 2003,
      "딜": 2004,
      "딤": 2005,
      "딥": 2006,
      "딧": 2007,
      "딨": 2008,
      "딩": 2009,
      "딪": 2010,
      "딫": 2011,
      "따": 2012,
      "딱": 2013,
      "딲": 2014,
      "딴": 2015,
      "딷": 2016,
      "딸": 2017,
      "땀": 2018,
      "땁": 2019,
      "땃": 2020,
      "땄": 2021,
      "땅": 2022,
      "땋": 2023,
      "때": 2024,
      "땐": 2025,
      "땔": 2026,
      "땜": 2027,
      "땟": 2028,
      "땠": 2029,
      "땡": 2030,
      "땢": 2031,
      "땨": 2032,
      "떄": 2033,
      "떠": 2034,
      "떡": 2035,
      "떢": 2036,
      "떤": 2037,
      "떧": 2038,
      "떨": 2039,
      "떰": 2040,
      "떱": 2041,
      "떳": 2042,
      "떴": 2043,
      "떵": 2044,
      "떻": 2045,
      "떼": 2046,
      "뗀": 2047,
      "뗄": 2048,
      "뗌": 2049,
      "뗍": 2050,
      "뗏": 2051,
      "뗐": 2052,
      "뗳": 2053,
      "뗴": 2054,
      "또": 2055,
      "똑": 2056,
      "똗": 2057,
      "똘": 2058,
      "똥": 2059,
      "똬": 2060,
      "뙤": 2061,
      "뚜": 2062,
      "뚝": 2063,
      "뚠": 2064,
      "뚤": 2065,
      "뚫": 2066,
      "뚬": 2067,
      "뚱": 2068,
      "뛰": 2069,
      "뛴": 2070,
      "뛸": 2071,
      "뜀": 2072,
      "뜁": 2073,
      "뜌": 2074,
      "뜨": 2075,
      "뜩": 2076,
      "뜬": 2077,
      "뜯": 2078,
      "뜰": 2079,
      "뜷": 2080,
      "뜸": 2081,
      "뜹": 2082,
      "뜻": 2083,
      "뜿": 2084,
      "띁": 2085,
      "띄": 2086,
      "띈": 2087,
      "띌": 2088,
      "띔": 2089,
      "띕": 2090,
      "띠": 2091,
      "띡": 2092,
      "띤": 2093,
      "띨": 2094,
      "띱": 2095,
      "띵": 2096,
      "라": 2097,
      "락": 2098,
      "란": 2099,
      "랁": 2100,
      "랃": 2101,
      "랄": 2102,
      "랆": 2103,
      "람": 2104,
      "랍": 2105,
      "랎": 2106,
      "랏": 2107,
      "랐": 2108,
      "랑": 2109,
      "랔": 2110,
      "랖": 2111,
      "랗": 2112,
      "래": 2113,
      "랙": 2114,
      "랜": 2115,
      "랠": 2116,
      "램": 2117,
      "랩": 2118,
      "랫": 2119,
      "랬": 2120,
      "랭": 2121,
      "랴": 2122,
      "략": 2123,
      "랸": 2124,
      "랼": 2125,
      "량": 2126,
      "럐": 2127,
      "러": 2128,
      "럭": 2129,
      "런": 2130,
      "럴": 2131,
      "럼": 2132,
      "럽": 2133,
      "럾": 2134,
      "럿": 2135,
      "렀": 2136,
      "렁": 2137,
      "렇": 2138,
      "레": 2139,
      "렉": 2140,
      "렌": 2141,
      "렐": 2142,
      "렘": 2143,
      "렙": 2144,
      "렛": 2145,
      "렜": 2146,
      "렝": 2147,
      "렠": 2148,
      "렣": 2149,
      "려": 2150,
      "력": 2151,
      "련": 2152,
      "렬": 2153,
      "렴": 2154,
      "렵": 2155,
      "렷": 2156,
      "렸": 2157,
      "령": 2158,
      "렺": 2159,
      "렿": 2160,
      "례": 2161,
      "롄": 2162,
      "롓": 2163,
      "로": 2164,
      "록": 2165,
      "론": 2166,
      "롤": 2167,
      "롬": 2168,
      "롭": 2169,
      "롯": 2170,
      "롱": 2171,
      "롷": 2172,
      "롸": 2173,
      "뢰": 2174,
      "룀": 2175,
      "룁": 2176,
      "료": 2177,
      "룡": 2178,
      "루": 2179,
      "룩": 2180,
      "룬": 2181,
      "룰": 2182,
      "룸": 2183,
      "룹": 2184,
      "룻": 2185,
      "룽": 2186,
      "뤄": 2187,
      "뤗": 2188,
      "뤘": 2189,
      "뤠": 2190,
      "뤼": 2191,
      "류": 2192,
      "륙": 2193,
      "륜": 2194,
      "륟": 2195,
      "률": 2196,
      "륨": 2197,
      "륭": 2198,
      "르": 2199,
      "륵": 2200,
      "른": 2201,
      "륻": 2202,
      "를": 2203,
      "릂": 2204,
      "릃": 2205,
      "름": 2206,
      "릅": 2207,
      "릇": 2208,
      "릉": 2209,
      "릎": 2210,
      "릏": 2211,
      "릐": 2212,
      "리": 2213,
      "릭": 2214,
      "린": 2215,
      "릴": 2216,
      "림": 2217,
      "립": 2218,
      "릿": 2219,
      "링": 2220,
      "맂": 2221,
      "맇": 2222,
      "마": 2223,
      "막": 2224,
      "맊": 2225,
      "만": 2226,
      "많": 2227,
      "맏": 2228,
      "말": 2229,
      "맑": 2230,
      "맗": 2231,
      "맘": 2232,
      "맙": 2233,
      "맛": 2234,
      "망": 2235,
      "맞": 2236,
      "맟": 2237,
      "맡": 2238,
      "맣": 2239,
      "매": 2240,
      "맥": 2241,
      "맨": 2242,
      "맫": 2243,
      "맬": 2244,
      "맴": 2245,
      "맵": 2246,
      "맷": 2247,
      "맸": 2248,
      "맹": 2249,
      "맺": 2250,
      "맻": 2251,
      "맽": 2252,
      "먀": 2253,
      "먄": 2254,
      "먕": 2255,
      "머": 2256,
      "먹": 2257,
      "먼": 2258,
      "먾": 2259,
      "멀": 2260,
      "멈": 2261,
      "멉": 2262,
      "멊": 2263,
      "멋": 2264,
      "멍": 2265,
      "멎": 2266,
      "멏": 2267,
      "멑": 2268,
      "멓": 2269,
      "메": 2270,
      "멕": 2271,
      "멘": 2272,
      "멜": 2273,
      "멤": 2274,
      "멥": 2275,
      "멧": 2276,
      "멩": 2277,
      "며": 2278,
      "멱": 2279,
      "면": 2280,
      "멸": 2281,
      "몀": 2282,
      "몃": 2283,
      "몄": 2284,
      "명": 2285,
      "몆": 2286,
      "몇": 2287,
      "몈": 2288,
      "몌": 2289,
      "모": 2290,
      "목": 2291,
      "몪": 2292,
      "몫": 2293,
      "몬": 2294,
      "몯": 2295,
      "몰": 2296,
      "몱": 2297,
      "몴": 2298,
      "몸": 2299,
      "몹": 2300,
      "못": 2301,
      "몼": 2302,
      "몽": 2303,
      "몾": 2304,
      "뫀": 2305,
      "뫂": 2306,
      "뫃": 2307,
      "뫄": 2308,
      "뫈": 2309,
      "뫖": 2310,
      "뫼": 2311,
      "묘": 2312,
      "묙": 2313,
      "묜": 2314,
      "묭": 2315,
      "무": 2316,
      "묵": 2317,
      "묶": 2318,
      "문": 2319,
      "묹": 2320,
      "묻": 2321,
      "물": 2322,
      "묽": 2323,
      "뭄": 2324,
      "뭅": 2325,
      "뭇": 2326,
      "뭉": 2327,
      "뭊": 2328,
      "뭍": 2329,
      "뭏": 2330,
      "뭐": 2331,
      "뭑": 2332,
      "뭔": 2333,
      "뭘": 2334,
      "뭠": 2335,
      "뭡": 2336,
      "뭣": 2337,
      "뭬": 2338,
      "뮈": 2339,
      "뮌": 2340,
      "뮐": 2341,
      "뮙": 2342,
      "뮛": 2343,
      "뮤": 2344,
      "뮥": 2345,
      "뮨": 2346,
      "뮬": 2347,
      "뮴": 2348,
      "므": 2349,
      "믄": 2350,
      "믈": 2351,
      "믐": 2352,
      "믑": 2353,
      "믓": 2354,
      "믜": 2355,
      "미": 2356,
      "믹": 2357,
      "민": 2358,
      "믾": 2359,
      "믿": 2360,
      "밀": 2361,
      "밈": 2362,
      "밉": 2363,
      "밋": 2364,
      "밌": 2365,
      "밍": 2366,
      "밎": 2367,
      "및": 2368,
      "밑": 2369,
      "바": 2370,
      "박": 2371,
      "밖": 2372,
      "반": 2373,
      "받": 2374,
      "발": 2375,
      "밝": 2376,
      "밞": 2377,
      "밟": 2378,
      "밣": 2379,
      "밤": 2380,
      "밥": 2381,
      "밦": 2382,
      "밧": 2383,
      "밨": 2384,
      "방": 2385,
      "밪": 2386,
      "밫": 2387,
      "밬": 2388,
      "밭": 2389,
      "밮": 2390,
      "배": 2391,
      "백": 2392,
      "밴": 2393,
      "밷": 2394,
      "밸": 2395,
      "뱀": 2396,
      "뱁": 2397,
      "뱃": 2398,
      "뱄": 2399,
      "뱅": 2400,
      "뱆": 2401,
      "뱉": 2402,
      "뱌": 2403,
      "뱍": 2404,
      "뱔": 2405,
      "버": 2406,
      "벅": 2407,
      "번": 2408,
      "벋": 2409,
      "벌": 2410,
      "벍": 2411,
      "범": 2412,
      "법": 2413,
      "벗": 2414,
      "벙": 2415,
      "벚": 2416,
      "벜": 2417,
      "벞": 2418,
      "베": 2419,
      "벡": 2420,
      "벤": 2421,
      "벧": 2422,
      "벨": 2423,
      "벰": 2424,
      "벳": 2425,
      "벵": 2426,
      "벼": 2427,
      "벽": 2428,
      "벾": 2429,
      "변": 2430,
      "별": 2431,
      "볌": 2432,
      "볍": 2433,
      "볐": 2434,
      "병": 2435,
      "볔": 2436,
      "볕": 2437,
      "볘": 2438,
      "보": 2439,
      "복": 2440,
      "볶": 2441,
      "본": 2442,
      "볻": 2443,
      "볼": 2444,
      "봄": 2445,
      "봅": 2446,
      "봇": 2447,
      "봉": 2448,
      "봋": 2449,
      "봍": 2450,
      "봐": 2451,
      "봣": 2452,
      "봤": 2453,
      "봥": 2454,
      "봬": 2455,
      "봽": 2456,
      "뵀": 2457,
      "뵈": 2458,
      "뵌": 2459,
      "뵐": 2460,
      "뵙": 2461,
      "뵜": 2462,
      "뵤": 2463,
      "뵨": 2464,
      "부": 2465,
      "북": 2466,
      "붂": 2467,
      "분": 2468,
      "붇": 2469,
      "불": 2470,
      "붉": 2471,
      "붋": 2472,
      "붐": 2473,
      "붓": 2474,
      "붕": 2475,
      "붙": 2476,
      "붱": 2477,
      "뷔": 2478,
      "뷰": 2479,
      "뷱": 2480,
      "뷴": 2481,
      "뷸": 2482,
      "브": 2483,
      "븍": 2484,
      "븐": 2485,
      "블": 2486,
      "븡": 2487,
      "빂": 2488,
      "비": 2489,
      "빅": 2490,
      "빆": 2491,
      "빈": 2492,
      "빋": 2493,
      "빌": 2494,
      "빍": 2495,
      "빔": 2496,
      "빕": 2497,
      "빗": 2498,
      "빙": 2499,
      "빚": 2500,
      "빛": 2501,
      "빠": 2502,
      "빡": 2503,
      "빢": 2504,
      "빤": 2505,
      "빧": 2506,
      "빨": 2507,
      "빩": 2508,
      "빰": 2509,
      "빱": 2510,
      "빳": 2511,
      "빴": 2512,
      "빵": 2513,
      "빼": 2514,
      "빽": 2515,
      "뺀": 2516,
      "뺄": 2517,
      "뺌": 2518,
      "뺍": 2519,
      "뺏": 2520,
      "뺐": 2521,
      "뺑": 2522,
      "뺒": 2523,
      "뺓": 2524,
      "뺕": 2525,
      "뺨": 2526,
      "뺴": 2527,
      "뺵": 2528,
      "뻇": 2529,
      "뻐": 2530,
      "뻑": 2531,
      "뻔": 2532,
      "뻗": 2533,
      "뻘": 2534,
      "뻣": 2535,
      "뻤": 2536,
      "뻥": 2537,
      "뻬": 2538,
      "뻿": 2539,
      "뼈": 2540,
      "뼉": 2541,
      "뼌": 2542,
      "뼘": 2543,
      "뼛": 2544,
      "뼤": 2545,
      "뽀": 2546,
      "뽁": 2547,
      "뽄": 2548,
      "뽈": 2549,
      "뽐": 2550,
      "뽑": 2551,
      "뽕": 2552,
      "뽚": 2553,
      "뽱": 2554,
      "뾰": 2555,
      "뿅": 2556,
      "뿌": 2557,
      "뿍": 2558,
      "뿐": 2559,
      "뿔": 2560,
      "뿘": 2561,
      "뿜": 2562,
      "뿝": 2563,
      "뿹": 2564,
      "쀼": 2565,
      "쁘": 2566,
      "쁜": 2567,
      "쁠": 2568,
      "쁨": 2569,
      "쁩": 2570,
      "쁸": 2571,
      "삐": 2572,
      "삑": 2573,
      "삔": 2574,
      "삣": 2575,
      "삥": 2576,
      "사": 2577,
      "삭": 2578,
      "삯": 2579,
      "산": 2580,
      "삲": 2581,
      "살": 2582,
      "삵": 2583,
      "삶": 2584,
      "삷": 2585,
      "삻": 2586,
      "삼": 2587,
      "삽": 2588,
      "삿": 2589,
      "샀": 2590,
      "상": 2591,
      "샅": 2592,
      "샆": 2593,
      "새": 2594,
      "색": 2595,
      "샊": 2596,
      "샌": 2597,
      "샐": 2598,
      "샘": 2599,
      "샙": 2600,
      "샛": 2601,
      "샜": 2602,
      "생": 2603,
      "샤": 2604,
      "샥": 2605,
      "샨": 2606,
      "샬": 2607,
      "샴": 2608,
      "샵": 2609,
      "샷": 2610,
      "샸": 2611,
      "샹": 2612,
      "샾": 2613,
      "섀": 2614,
      "섕": 2615,
      "서": 2616,
      "석": 2617,
      "섞": 2618,
      "선": 2619,
      "섣": 2620,
      "설": 2621,
      "섥": 2622,
      "섬": 2623,
      "섭": 2624,
      "섯": 2625,
      "섰": 2626,
      "성": 2627,
      "세": 2628,
      "섹": 2629,
      "섻": 2630,
      "센": 2631,
      "셀": 2632,
      "셈": 2633,
      "셉": 2634,
      "셋": 2635,
      "셌": 2636,
      "셍": 2637,
      "셔": 2638,
      "셕": 2639,
      "션": 2640,
      "셜": 2641,
      "셧": 2642,
      "셨": 2643,
      "셩": 2644,
      "셰": 2645,
      "셴": 2646,
      "셸": 2647,
      "소": 2648,
      "속": 2649,
      "솎": 2650,
      "손": 2651,
      "솓": 2652,
      "솔": 2653,
      "솜": 2654,
      "솝": 2655,
      "솟": 2656,
      "송": 2657,
      "솣": 2658,
      "솥": 2659,
      "솬": 2660,
      "쇄": 2661,
      "쇠": 2662,
      "쇳": 2663,
      "쇼": 2664,
      "숀": 2665,
      "숍": 2666,
      "숏": 2667,
      "숖": 2668,
      "수": 2669,
      "숙": 2670,
      "순": 2671,
      "숟": 2672,
      "술": 2673,
      "숨": 2674,
      "숩": 2675,
      "숫": 2676,
      "숭": 2677,
      "숮": 2678,
      "숯": 2679,
      "숱": 2680,
      "숲": 2681,
      "숴": 2682,
      "숸": 2683,
      "숼": 2684,
      "쉅": 2685,
      "쉉": 2686,
      "쉐": 2687,
      "쉘": 2688,
      "쉬": 2689,
      "쉰": 2690,
      "쉴": 2691,
      "쉼": 2692,
      "쉽": 2693,
      "쉿": 2694,
      "슈": 2695,
      "슉": 2696,
      "슐": 2697,
      "슘": 2698,
      "슙": 2699,
      "슛": 2700,
      "슝": 2701,
      "스": 2702,
      "슥": 2703,
      "슨": 2704,
      "슬": 2705,
      "슭": 2706,
      "슴": 2707,
      "습": 2708,
      "슷": 2709,
      "승": 2710,
      "슺": 2711,
      "슽": 2712,
      "슾": 2713,
      "싑": 2714,
      "싚": 2715,
      "시": 2716,
      "식": 2717,
      "신": 2718,
      "싡": 2719,
      "싢": 2720,
      "싣": 2721,
      "실": 2722,
      "싦": 2723,
      "싫": 2724,
      "심": 2725,
      "십": 2726,
      "싯": 2727,
      "싱": 2728,
      "싲": 2729,
      "싶": 2730,
      "싷": 2731,
      "싸": 2732,
      "싹": 2733,
      "싼": 2734,
      "쌀": 2735,
      "쌂": 2736,
      "쌈": 2737,
      "쌉": 2738,
      "쌌": 2739,
      "쌍": 2740,
      "쌒": 2741,
      "쌓": 2742,
      "쌔": 2743,
      "쌘": 2744,
      "쌤": 2745,
      "쌥": 2746,
      "쌧": 2747,
      "쌨": 2748,
      "쌩": 2749,
      "쌰": 2750,
      "썅": 2751,
      "써": 2752,
      "썩": 2753,
      "썪": 2754,
      "썬": 2755,
      "썰": 2756,
      "썸": 2757,
      "썹": 2758,
      "썻": 2759,
      "썼": 2760,
      "썽": 2761,
      "쎄": 2762,
      "쎅": 2763,
      "쎈": 2764,
      "쎌": 2765,
      "쎘": 2766,
      "쎙": 2767,
      "쎤": 2768,
      "쎳": 2769,
      "쎼": 2770,
      "쏘": 2771,
      "쏙": 2772,
      "쏜": 2773,
      "쏟": 2774,
      "쏠": 2775,
      "쏨": 2776,
      "쏩": 2777,
      "쏫": 2778,
      "쏭": 2779,
      "쏱": 2780,
      "쏳": 2781,
      "쏴": 2782,
      "쏵": 2783,
      "쏼": 2784,
      "쐈": 2785,
      "쐐": 2786,
      "쐘": 2787,
      "쐬": 2788,
      "쐴": 2789,
      "쑈": 2790,
      "쑤": 2791,
      "쑥": 2792,
      "쑨": 2793,
      "쑵": 2794,
      "쑹": 2795,
      "쒀": 2796,
      "쒸": 2797,
      "쓉": 2798,
      "쓔": 2799,
      "쓰": 2800,
      "쓱": 2801,
      "쓴": 2802,
      "쓷": 2803,
      "쓸": 2804,
      "씀": 2805,
      "씁": 2806,
      "씅": 2807,
      "씌": 2808,
      "씍": 2809,
      "씨": 2810,
      "씩": 2811,
      "씪": 2812,
      "씬": 2813,
      "씯": 2814,
      "씰": 2815,
      "씸": 2816,
      "씹": 2817,
      "씻": 2818,
      "씼": 2819,
      "씽": 2820,
      "아": 2821,
      "악": 2822,
      "안": 2823,
      "앉": 2824,
      "않": 2825,
      "알": 2826,
      "앍": 2827,
      "앎": 2828,
      "앏": 2829,
      "앓": 2830,
      "암": 2831,
      "압": 2832,
      "앖": 2833,
      "앗": 2834,
      "았": 2835,
      "앙": 2836,
      "앚": 2837,
      "앜": 2838,
      "앝": 2839,
      "앞": 2840,
      "앟": 2841,
      "애": 2842,
      "액": 2843,
      "앤": 2844,
      "앨": 2845,
      "앰": 2846,
      "앱": 2847,
      "앴": 2848,
      "앵": 2849,
      "야": 2850,
      "약": 2851,
      "얀": 2852,
      "얄": 2853,
      "얇": 2854,
      "얉": 2855,
      "얌": 2856,
      "얍": 2857,
      "얏": 2858,
      "얐": 2859,
      "양": 2860,
      "얕": 2861,
      "얖": 2862,
      "얗": 2863,
      "얘": 2864,
      "얠": 2865,
      "어": 2866,
      "억": 2867,
      "얶": 2868,
      "언": 2869,
      "얹": 2870,
      "얺": 2871,
      "얻": 2872,
      "얼": 2873,
      "얽": 2874,
      "엃": 2875,
      "엄": 2876,
      "업": 2877,
      "없": 2878,
      "엇": 2879,
      "었": 2880,
      "엉": 2881,
      "엊": 2882,
      "엌": 2883,
      "엎": 2884,
      "엏": 2885,
      "에": 2886,
      "엑": 2887,
      "엔": 2888,
      "엗": 2889,
      "엘": 2890,
      "엠": 2891,
      "엡": 2892,
      "엣": 2893,
      "엤": 2894,
      "엥": 2895,
      "엧": 2896,
      "여": 2897,
      "역": 2898,
      "엮": 2899,
      "연": 2900,
      "열": 2901,
      "엶": 2902,
      "엷": 2903,
      "염": 2904,
      "엽": 2905,
      "엾": 2906,
      "엿": 2907,
      "였": 2908,
      "영": 2909,
      "옃": 2910,
      "옅": 2911,
      "옆": 2912,
      "옇": 2913,
      "예": 2914,
      "옌": 2915,
      "옐": 2916,
      "옛": 2917,
      "옜": 2918,
      "옢": 2919,
      "오": 2920,
      "옥": 2921,
      "온": 2922,
      "옪": 2923,
      "올": 2924,
      "옭": 2925,
      "옮": 2926,
      "옯": 2927,
      "옳": 2928,
      "옴": 2929,
      "옵": 2930,
      "옶": 2931,
      "옷": 2932,
      "옸": 2933,
      "옹": 2934,
      "옺": 2935,
      "옻": 2936,
      "옾": 2937,
      "와": 2938,
      "왁": 2939,
      "완": 2940,
      "왈": 2941,
      "왑": 2942,
      "왓": 2943,
      "왔": 2944,
      "왕": 2945,
      "왖": 2946,
      "왛": 2947,
      "왜": 2948,
      "왝": 2949,
      "왠": 2950,
      "왤": 2951,
      "왭": 2952,
      "왱": 2953,
      "왴": 2954,
      "외": 2955,
      "왼": 2956,
      "욌": 2957,
      "요": 2958,
      "욕": 2959,
      "욘": 2960,
      "욜": 2961,
      "욤": 2962,
      "욥": 2963,
      "욧": 2964,
      "용": 2965,
      "욬": 2966,
      "욮": 2967,
      "우": 2968,
      "욱": 2969,
      "운": 2970,
      "욷": 2971,
      "울": 2972,
      "욹": 2973,
      "움": 2974,
      "웁": 2975,
      "웃": 2976,
      "웅": 2977,
      "워": 2978,
      "웍": 2979,
      "원": 2980,
      "웒": 2981,
      "월": 2982,
      "웜": 2983,
      "웝": 2984,
      "웟": 2985,
      "웠": 2986,
      "웡": 2987,
      "웤": 2988,
      "웧": 2989,
      "웨": 2990,
      "웩": 2991,
      "웬": 2992,
      "웰": 2993,
      "웹": 2994,
      "위": 2995,
      "윈": 2996,
      "윌": 2997,
      "윗": 2998,
      "윘": 2999,
      "윙": 3000,
      "유": 3001,
      "육": 3002,
      "윤": 3003,
      "윧": 3004,
      "율": 3005,
      "윰": 3006,
      "윳": 3007,
      "융": 3008,
      "윶": 3009,
      "윷": 3010,
      "윻": 3011,
      "으": 3012,
      "윽": 3013,
      "은": 3014,
      "읃": 3015,
      "을": 3016,
      "읇": 3017,
      "읊": 3018,
      "읋": 3019,
      "음": 3020,
      "읍": 3021,
      "읏": 3022,
      "응": 3023,
      "읕": 3024,
      "읗": 3025,
      "의": 3026,
      "읜": 3027,
      "읟": 3028,
      "읨": 3029,
      "읫": 3030,
      "이": 3031,
      "익": 3032,
      "읶": 3033,
      "인": 3034,
      "읺": 3035,
      "읻": 3036,
      "일": 3037,
      "읽": 3038,
      "잃": 3039,
      "임": 3040,
      "입": 3041,
      "잆": 3042,
      "잇": 3043,
      "있": 3044,
      "잉": 3045,
      "잊": 3046,
      "잋": 3047,
      "잌": 3048,
      "잍": 3049,
      "잎": 3050,
      "잏": 3051,
      "자": 3052,
      "작": 3053,
      "잒": 3054,
      "잔": 3055,
      "잖": 3056,
      "잗": 3057,
      "잘": 3058,
      "잛": 3059,
      "잜": 3060,
      "잠": 3061,
      "잡": 3062,
      "잣": 3063,
      "잤": 3064,
      "장": 3065,
      "잦": 3066,
      "잪": 3067,
      "재": 3068,
      "잭": 3069,
      "잰": 3070,
      "잴": 3071,
      "잼": 3072,
      "잽": 3073,
      "잿": 3074,
      "쟀": 3075,
      "쟁": 3076,
      "쟂": 3077,
      "쟈": 3078,
      "쟌": 3079,
      "쟎": 3080,
      "쟐": 3081,
      "쟝": 3082,
      "쟤": 3083,
      "쟨": 3084,
      "저": 3085,
      "적": 3086,
      "전": 3087,
      "절": 3088,
      "젊": 3089,
      "젋": 3090,
      "젏": 3091,
      "점": 3092,
      "접": 3093,
      "젓": 3094,
      "젔": 3095,
      "정": 3096,
      "젖": 3097,
      "젛": 3098,
      "제": 3099,
      "젝": 3100,
      "젠": 3101,
      "젣": 3102,
      "젤": 3103,
      "젬": 3104,
      "젭": 3105,
      "젯": 3106,
      "젱": 3107,
      "져": 3108,
      "젹": 3109,
      "젼": 3110,
      "졀": 3111,
      "졋": 3112,
      "졌": 3113,
      "졍": 3114,
      "졔": 3115,
      "졕": 3116,
      "졜": 3117,
      "조": 3118,
      "족": 3119,
      "존": 3120,
      "졵": 3121,
      "졸": 3122,
      "좀": 3123,
      "좁": 3124,
      "좃": 3125,
      "종": 3126,
      "좆": 3127,
      "좇": 3128,
      "좋": 3129,
      "좌": 3130,
      "좔": 3131,
      "좡": 3132,
      "좽": 3133,
      "죄": 3134,
      "죈": 3135,
      "죌": 3136,
      "죕": 3137,
      "죗": 3138,
      "죙": 3139,
      "죠": 3140,
      "죡": 3141,
      "죤": 3142,
      "죻": 3143,
      "주": 3144,
      "죽": 3145,
      "준": 3146,
      "줄": 3147,
      "줌": 3148,
      "줍": 3149,
      "줏": 3150,
      "중": 3151,
      "줒": 3152,
      "줗": 3153,
      "줘": 3154,
      "줜": 3155,
      "줫": 3156,
      "줬": 3157,
      "쥐": 3158,
      "쥔": 3159,
      "쥘": 3160,
      "쥡": 3161,
      "쥣": 3162,
      "쥬": 3163,
      "쥭": 3164,
      "쥰": 3165,
      "쥴": 3166,
      "즈": 3167,
      "즉": 3168,
      "즌": 3169,
      "즐": 3170,
      "즘": 3171,
      "즙": 3172,
      "증": 3173,
      "즤": 3174,
      "즨": 3175,
      "지": 3176,
      "직": 3177,
      "짂": 3178,
      "진": 3179,
      "짆": 3180,
      "짇": 3181,
      "질": 3182,
      "짊": 3183,
      "짋": 3184,
      "짏": 3185,
      "짐": 3186,
      "집": 3187,
      "짒": 3188,
      "짓": 3189,
      "징": 3190,
      "짖": 3191,
      "짙": 3192,
      "짚": 3193,
      "짛": 3194,
      "짜": 3195,
      "짝": 3196,
      "짞": 3197,
      "짠": 3198,
      "짢": 3199,
      "짣": 3200,
      "짤": 3201,
      "짦": 3202,
      "짧": 3203,
      "짬": 3204,
      "짭": 3205,
      "짯": 3206,
      "짰": 3207,
      "짱": 3208,
      "째": 3209,
      "짹": 3210,
      "짼": 3211,
      "쨉": 3212,
      "쨋": 3213,
      "쨌": 3214,
      "쨍": 3215,
      "쨔": 3216,
      "쨩": 3217,
      "쨰": 3218,
      "쩌": 3219,
      "쩍": 3220,
      "쩐": 3221,
      "쩔": 3222,
      "쩜": 3223,
      "쩝": 3224,
      "쩠": 3225,
      "쩡": 3226,
      "쩨": 3227,
      "쪄": 3228,
      "쪘": 3229,
      "쪼": 3230,
      "쪽": 3231,
      "쪾": 3232,
      "쫀": 3233,
      "쫄": 3234,
      "쫌": 3235,
      "쫍": 3236,
      "쫏": 3237,
      "쫑": 3238,
      "쫒": 3239,
      "쫓": 3240,
      "쫗": 3241,
      "쫘": 3242,
      "쫙": 3243,
      "쬐": 3244,
      "쬘": 3245,
      "쬬": 3246,
      "쭈": 3247,
      "쭉": 3248,
      "쭌": 3249,
      "쭐": 3250,
      "쭙": 3251,
      "쭝": 3252,
      "쭤": 3253,
      "쭵": 3254,
      "쮜": 3255,
      "쮸": 3256,
      "쯔": 3257,
      "쯕": 3258,
      "쯤": 3259,
      "쯧": 3260,
      "쯩": 3261,
      "찌": 3262,
      "찍": 3263,
      "찐": 3264,
      "찔": 3265,
      "찜": 3266,
      "찝": 3267,
      "찟": 3268,
      "찡": 3269,
      "찢": 3270,
      "찣": 3271,
      "찧": 3272,
      "차": 3273,
      "착": 3274,
      "찬": 3275,
      "찮": 3276,
      "찯": 3277,
      "찰": 3278,
      "참": 3279,
      "찹": 3280,
      "찻": 3281,
      "찼": 3282,
      "창": 3283,
      "찾": 3284,
      "찿": 3285,
      "챃": 3286,
      "채": 3287,
      "책": 3288,
      "챈": 3289,
      "챌": 3290,
      "챔": 3291,
      "챕": 3292,
      "챗": 3293,
      "챘": 3294,
      "챙": 3295,
      "챠": 3296,
      "챡": 3297,
      "챤": 3298,
      "챦": 3299,
      "챨": 3300,
      "챴": 3301,
      "챵": 3302,
      "처": 3303,
      "척": 3304,
      "천": 3305,
      "첟": 3306,
      "철": 3307,
      "첨": 3308,
      "첩": 3309,
      "첫": 3310,
      "첬": 3311,
      "청": 3312,
      "첮": 3313,
      "첯": 3314,
      "체": 3315,
      "첵": 3316,
      "첸": 3317,
      "첼": 3318,
      "쳇": 3319,
      "쳐": 3320,
      "쳔": 3321,
      "쳘": 3322,
      "쳣": 3323,
      "쳤": 3324,
      "쳥": 3325,
      "쳦": 3326,
      "쳧": 3327,
      "쳬": 3328,
      "초": 3329,
      "촉": 3330,
      "촌": 3331,
      "촐": 3332,
      "촘": 3333,
      "촛": 3334,
      "총": 3335,
      "촞": 3336,
      "촟": 3337,
      "촣": 3338,
      "촤": 3339,
      "촬": 3340,
      "쵀": 3341,
      "최": 3342,
      "쵸": 3343,
      "추": 3344,
      "축": 3345,
      "춘": 3346,
      "출": 3347,
      "춤": 3348,
      "춥": 3349,
      "춧": 3350,
      "충": 3351,
      "춭": 3352,
      "춯": 3353,
      "춰": 3354,
      "췃": 3355,
      "췄": 3356,
      "췌": 3357,
      "취": 3358,
      "췰": 3359,
      "츄": 3360,
      "츈": 3361,
      "츌": 3362,
      "츕": 3363,
      "츠": 3364,
      "측": 3365,
      "츨": 3366,
      "츰": 3367,
      "층": 3368,
      "칀": 3369,
      "치": 3370,
      "칙": 3371,
      "친": 3372,
      "칠": 3373,
      "칡": 3374,
      "침": 3375,
      "칩": 3376,
      "칫": 3377,
      "칭": 3378,
      "칮": 3379,
      "카": 3380,
      "칵": 3381,
      "칸": 3382,
      "칼": 3383,
      "캄": 3384,
      "캅": 3385,
      "캈": 3386,
      "캉": 3387,
      "캐": 3388,
      "캑": 3389,
      "캔": 3390,
      "캘": 3391,
      "캠": 3392,
      "캡": 3393,
      "캣": 3394,
      "캤": 3395,
      "캥": 3396,
      "캬": 3397,
      "캭": 3398,
      "컈": 3399,
      "커": 3400,
      "컥": 3401,
      "컨": 3402,
      "컫": 3403,
      "컬": 3404,
      "컴": 3405,
      "컵": 3406,
      "컷": 3407,
      "컸": 3408,
      "컹": 3409,
      "컾": 3410,
      "케": 3411,
      "켁": 3412,
      "켄": 3413,
      "켈": 3414,
      "켐": 3415,
      "켑": 3416,
      "켓": 3417,
      "켔": 3418,
      "켕": 3419,
      "켛": 3420,
      "켜": 3421,
      "켠": 3422,
      "켤": 3423,
      "켯": 3424,
      "켰": 3425,
      "켱": 3426,
      "켸": 3427,
      "코": 3428,
      "콕": 3429,
      "콘": 3430,
      "콜": 3431,
      "콤": 3432,
      "콥": 3433,
      "콧": 3434,
      "콩": 3435,
      "콰": 3436,
      "콱": 3437,
      "콴": 3438,
      "쾅": 3439,
      "쾌": 3440,
      "쾐": 3441,
      "쾨": 3442,
      "쿄": 3443,
      "쿠": 3444,
      "쿡": 3445,
      "쿤": 3446,
      "쿨": 3447,
      "쿰": 3448,
      "쿵": 3449,
      "쿼": 3450,
      "퀄": 3451,
      "퀘": 3452,
      "퀴": 3453,
      "퀵": 3454,
      "퀸": 3455,
      "퀼": 3456,
      "큐": 3457,
      "큘": 3458,
      "크": 3459,
      "큰": 3460,
      "큲": 3461,
      "클": 3462,
      "큼": 3463,
      "큽": 3464,
      "킁": 3465,
      "키": 3466,
      "킥": 3467,
      "킨": 3468,
      "킬": 3469,
      "킳": 3470,
      "킴": 3471,
      "킵": 3472,
      "킷": 3473,
      "킹": 3474,
      "타": 3475,
      "탁": 3476,
      "탄": 3477,
      "탈": 3478,
      "탐": 3479,
      "탑": 3480,
      "탓": 3481,
      "탔": 3482,
      "탕": 3483,
      "탘": 3484,
      "태": 3485,
      "택": 3486,
      "탠": 3487,
      "탤": 3488,
      "탬": 3489,
      "탭": 3490,
      "탯": 3491,
      "탰": 3492,
      "탱": 3493,
      "탹": 3494,
      "턔": 3495,
      "터": 3496,
      "턱": 3497,
      "턴": 3498,
      "털": 3499,
      "텀": 3500,
      "텁": 3501,
      "텃": 3502,
      "텅": 3503,
      "텋": 3504,
      "테": 3505,
      "텍": 3506,
      "텐": 3507,
      "텔": 3508,
      "템": 3509,
      "텝": 3510,
      "텟": 3511,
      "텨": 3512,
      "텬": 3513,
      "텻": 3514,
      "텼": 3515,
      "톄": 3516,
      "토": 3517,
      "톡": 3518,
      "톤": 3519,
      "톨": 3520,
      "톰": 3521,
      "톱": 3522,
      "톳": 3523,
      "통": 3524,
      "톹": 3525,
      "톺": 3526,
      "톻": 3527,
      "퇘": 3528,
      "퇴": 3529,
      "퇸": 3530,
      "툄": 3531,
      "툇": 3532,
      "투": 3533,
      "툭": 3534,
      "툰": 3535,
      "툴": 3536,
      "툼": 3537,
      "툽": 3538,
      "퉁": 3539,
      "퉈": 3540,
      "퉜": 3541,
      "퉤": 3542,
      "튀": 3543,
      "튄": 3544,
      "튈": 3545,
      "튓": 3546,
      "튕": 3547,
      "튜": 3548,
      "튤": 3549,
      "튬": 3550,
      "튭": 3551,
      "트": 3552,
      "특": 3553,
      "튼": 3554,
      "튽": 3555,
      "튿": 3556,
      "틀": 3557,
      "틈": 3558,
      "틋": 3559,
      "틍": 3560,
      "틑": 3561,
      "틔": 3562,
      "티": 3563,
      "틱": 3564,
      "틴": 3565,
      "틸": 3566,
      "팀": 3567,
      "팁": 3568,
      "팅": 3569,
      "파": 3570,
      "팍": 3571,
      "팎": 3572,
      "판": 3573,
      "팔": 3574,
      "팜": 3575,
      "팝": 3576,
      "팟": 3577,
      "팠": 3578,
      "팡": 3579,
      "팥": 3580,
      "패": 3581,
      "팩": 3582,
      "팬": 3583,
      "팰": 3584,
      "팸": 3585,
      "팹": 3586,
      "팻": 3587,
      "팼": 3588,
      "팽": 3589,
      "퍄": 3590,
      "퍈": 3591,
      "퍙": 3592,
      "퍠": 3593,
      "퍼": 3594,
      "퍽": 3595,
      "펀": 3596,
      "펄": 3597,
      "펌": 3598,
      "펍": 3599,
      "펏": 3600,
      "펐": 3601,
      "펑": 3602,
      "페": 3603,
      "펙": 3604,
      "펜": 3605,
      "펠": 3606,
      "펨": 3607,
      "펫": 3608,
      "펴": 3609,
      "펵": 3610,
      "편": 3611,
      "펼": 3612,
      "폄": 3613,
      "폇": 3614,
      "폈": 3615,
      "평": 3616,
      "폐": 3617,
      "폠": 3618,
      "폡": 3619,
      "포": 3620,
      "폭": 3621,
      "폰": 3622,
      "폴": 3623,
      "폼": 3624,
      "퐁": 3625,
      "퐄": 3626,
      "푀": 3627,
      "표": 3628,
      "푝": 3629,
      "푱": 3630,
      "푶": 3631,
      "푸": 3632,
      "푹": 3633,
      "푼": 3634,
      "풀": 3635,
      "풇": 3636,
      "품": 3637,
      "풉": 3638,
      "풋": 3639,
      "풍": 3640,
      "풒": 3641,
      "풥": 3642,
      "퓌": 3643,
      "퓨": 3644,
      "퓰": 3645,
      "퓽": 3646,
      "프": 3647,
      "픈": 3648,
      "플": 3649,
      "픔": 3650,
      "픕": 3651,
      "픙": 3652,
      "픝": 3653,
      "픞": 3654,
      "피": 3655,
      "픽": 3656,
      "핀": 3657,
      "필": 3658,
      "핌": 3659,
      "핍": 3660,
      "핏": 3661,
      "핑": 3662,
      "하": 3663,
      "학": 3664,
      "핛": 3665,
      "한": 3666,
      "핞": 3667,
      "핟": 3668,
      "할": 3669,
      "핡": 3670,
      "핣": 3671,
      "핤": 3672,
      "핥": 3673,
      "핧": 3674,
      "함": 3675,
      "합": 3676,
      "핫": 3677,
      "핬": 3678,
      "항": 3679,
      "핮": 3680,
      "핰": 3681,
      "핳": 3682,
      "해": 3683,
      "핵": 3684,
      "핸": 3685,
      "핼": 3686,
      "햄": 3687,
      "햅": 3688,
      "햇": 3689,
      "했": 3690,
      "행": 3691,
      "햊": 3692,
      "햏": 3693,
      "햐": 3694,
      "햑": 3695,
      "햔": 3696,
      "햘": 3697,
      "햛": 3698,
      "햠": 3699,
      "햡": 3700,
      "햤": 3701,
      "향": 3702,
      "햬": 3703,
      "햭": 3704,
      "헀": 3705,
      "헁": 3706,
      "허": 3707,
      "헉": 3708,
      "헌": 3709,
      "헐": 3710,
      "험": 3711,
      "헙": 3712,
      "헚": 3713,
      "헛": 3714,
      "헝": 3715,
      "헣": 3716,
      "헤": 3717,
      "헥": 3718,
      "헨": 3719,
      "헬": 3720,
      "헴": 3721,
      "헷": 3722,
      "헸": 3723,
      "헹": 3724,
      "혀": 3725,
      "혁": 3726,
      "현": 3727,
      "혈": 3728,
      "혐": 3729,
      "협": 3730,
      "혓": 3731,
      "혔": 3732,
      "형": 3733,
      "혜": 3734,
      "호": 3735,
      "혹": 3736,
      "혼": 3737,
      "홀": 3738,
      "홈": 3739,
      "홉": 3740,
      "홋": 3741,
      "홍": 3742,
      "홑": 3743,
      "홓": 3744,
      "화": 3745,
      "확": 3746,
      "환": 3747,
      "홛": 3748,
      "활": 3749,
      "홟": 3750,
      "홥": 3751,
      "홧": 3752,
      "황": 3753,
      "홰": 3754,
      "홱": 3755,
      "횃": 3756,
      "회": 3757,
      "획": 3758,
      "횐": 3759,
      "횔": 3760,
      "횟": 3761,
      "횡": 3762,
      "효": 3763,
      "후": 3764,
      "훅": 3765,
      "훈": 3766,
      "훌": 3767,
      "훑": 3768,
      "훓": 3769,
      "훔": 3770,
      "훕": 3771,
      "훗": 3772,
      "훠": 3773,
      "훤": 3774,
      "훨": 3775,
      "훵": 3776,
      "훼": 3777,
      "휀": 3778,
      "휄": 3779,
      "휑": 3780,
      "휘": 3781,
      "휙": 3782,
      "휜": 3783,
      "휠": 3784,
      "휩": 3785,
      "휫": 3786,
      "휭": 3787,
      "휴": 3788,
      "휼": 3789,
      "흄": 3790,
      "흉": 3791,
      "흐": 3792,
      "흑": 3793,
      "흔": 3794,
      "흘": 3795,
      "흙": 3796,
      "흝": 3797,
      "흠": 3798,
      "흡": 3799,
      "흥": 3800,
      "흩": 3801,
      "희": 3802,
      "흭": 3803,
      "흰": 3804,
      "히": 3805,
      "힉": 3806,
      "힌": 3807,
      "힐": 3808,
      "힗": 3809,
      "힘": 3810,
      "힙": 3811,
      "힝": 3812,
      "힣": 3813,
      "": 3814,
      "": 3815,
      "": 3816,
      "": 3817,
      "": 3818,
      "": 3819,
      "": 3820,
      "": 3821,
      "": 3822,
      "": 3823,
      "": 3824,
      "更": 3825,
      "龜": 3826,
      "龜": 3827,
      "金": 3828,
      "羅": 3829,
      "亂": 3830,
      "來": 3831,
      "冷": 3832,
      "盧": 3833,
      "論": 3834,
      "雷": 3835,
      "樂": 3836,
      "不": 3837,
      "略": 3838,
      "兩": 3839,
      "良": 3840,
      "女": 3841,
      "聯": 3842,
      "殮": 3843,
      "例": 3844,
      "六": 3845,
      "利": 3846,
      "李": 3847,
      "離": 3848,
      "立": 3849,
      "️": 3850,
      "︙": 3851,
      "﻿": 3852,
      "！": 3853,
      "＂": 3854,
      "＃": 3855,
      "％": 3856,
      "＆": 3857,
      "（": 3858,
      "）": 3859,
      "＊": 3860,
      "＋": 3861,
      "，": 3862,
      "－": 3863,
      "／": 3864,
      "２": 3865,
      "：": 3866,
      "＜": 3867,
      "＞": 3868,
      "？": 3869,
      "［": 3870,
      "＼": 3871,
      "］": 3872,
      "ｍ": 3873,
      "～": 3874,
      "｢": 3875,
      "｣": 3876,
      "･": 3877,
      "￦": 3878,
      "￼": 3879,
      "𓅿": 3880,
      "🌃": 3881,
      "🌄": 3882,
      "🌌": 3883,
      "🌏": 3884,
      "🌲": 3885,
      "🍍": 3886,
      "🎾": 3887,
      "🏓": 3888,
      "🏗": 3889,
      "🏥": 3890,
      "🏻": 3891,
      "🐅": 3892,
      "🐈": 3893,
      "🐒": 3894,
      "🐕": 3895,
      "🐖": 3896,
      "🐶": 3897,
      "👁": 3898,
      "👉": 3899,
      "👋": 3900,
      "👍": 3901,
      "👎": 3902,
      "💖": 3903,
      "💗": 3904,
      "💙": 3905,
      "💩": 3906,
      "💻": 3907,
      "🔥": 3908,
      "🕸": 3909,
      "🖥": 3910,
      "😀": 3911,
      "😁": 3912,
      "😂": 3913,
      "😃": 3914,
      "😄": 3915,
      "😅": 3916,
      "😉": 3917,
      "😏": 3918,
      "😡": 3919,
      "😢": 3920,
      "😭": 3921,
      "😰": 3922,
      "🙌": 3923,
      "🙏": 3924,
      "🚫": 3925,
      "🤣": 3926,
      "🤦": 3927,
      "🤩": 3928,
      "🤬": 3929,
      "🥅": 3930,
      "🦀": 3931,
      "🧥": 3932,
      "󰡒": 3933,
      "󰡓": 3934,
      "󰡔": 3935,
      "󰡕": 3936,
      "##상": 3937,
      "##하": 3938,
      "##여": 3939,
      "##정": 3940,
      "##지": 3941,
      "##역": 3942,
      "##의": 3943,
      "##영": 3944,
      "##진": 3945,
      "##측": 3946,
      "##에": 3947,
      "##선": 3948,
      "##는": 3949,
      "##것": 3950,
      "##인": 3951,
      "##데": 3952,
      "##도": 3953,
      "##0": 3954,
      "##년": 3955,
      "##대": 3956,
      "##까": 3957,
      "##기": 3958,
      "##를": 3959,
      "##내": 3960,
      "##어": 3961,
      "##로": 3962,
      "##마": 3963,
      "##자": 3964,
      "##표": 3965,
      "##법": 3966,
      "##은": 3967,
      "##할": 3968,
      "##9": 3969,
      "##회": 3970,
      "##직": 3971,
      "##조": 3972,
      "##천": 3973,
      "##야": 3974,
      "##유": 3975,
      "##한": 3976,
      "##국": 3977,
      "##당": 3978,
      "##무": 3979,
      "##왕": 3980,
      "##이": 3981,
      "##랬": 3982,
      "##던": 3983,
      "##가": 3984,
      "##박": 3985,
      "##결": 3986,
      "##과": 3987,
      "##해": 3988,
      "##주": 3989,
      "##토": 3990,
      "##거": 3991,
      "##나": 3992,
      "##끼": 3993,
      "##들": 3994,
      "##갈": 3995,
      "##되": 3996,
      "##고": 3997,
      "##을": 3998,
      "##팩": 3999,
      "##씩": 4000,
      "##방": 4001,
      "##교": 4002,
      "##육": 4003,
      "##재": 4004,
      "##라": 4005,
      "##구": 4006,
      "##아": 4007,
      "##으": 4008,
      "##약": 4009,
      "##다": 4010,
      "##부": 4011,
      "##러": 4012,
      "##스": 4013,
      "##터": 4014,
      "##2": 4015,
      "##만": 4016,
      "##원": 4017,
      "##점": 4018,
      "##집": 4019,
      "##았": 4020,
      "##단": 4021,
      "##전": 4022,
      "##됨": 4023,
      "##병": 4024,
      "##습": 4025,
      "##후": 4026,
      "##활": 4027,
      "##체": 4028,
      "##변": 4029,
      "##제": 4030,
      "##공": 4031,
      "##성": 4032,
      "##출": 4033,
      "##면": 4034,
      "##벌": 4035,
      "##용": 4036,
      "##렀": 4037,
      "##시": 4038,
      "##랜": 4039,
      "##드": 4040,
      "##었": 4041,
      "##니": 4042,
      "##봤": 4043,
      "##협": 4044,
      "##받": 4045,
      "##며": 4046,
      "##경": 4047,
      "##오": 4048,
      "##염": 4049,
      "##X": 4050,
      "##사": 4051,
      "##와": 4052,
      "##치": 4053,
      "##질": 4054,
      "##좀": 4055,
      "##요": 4056,
      "##신": 4057,
      "##팔": 4058,
      "##려": 4059,
      "##북": 4060,
      "##서": 4061,
      "##굴": 4062,
      "##중": 4063,
      "##1": 4064,
      "##산": 4065,
      "##L": 4066,
      "##C": 4067,
      "##소": 4068,
      "##리": 4069,
      "##뿐": 4070,
      "##일": 4071,
      "##합": 4072,
      "##속": 4073,
      "##입": 4074,
      "##없": 4075,
      "##틀": 4076,
      "##운": 4077,
      "##행": 4078,
      "##5": 4079,
      "##명": 4080,
      "##항": 4081,
      "##식": 4082,
      "##c": 4083,
      "##m": 4084,
      "##발": 4085,
      "##술": 4086,
      "##화": 4087,
      "##든": 4088,
      "##닐": 4089,
      "##디": 4090,
      "##심": 4091,
      "##셔": 4092,
      "##녀": 4093,
      "##각": 4094,
      "##졌": 4095,
      "##풍": 4096,
      "##곳": 4097,
      "##쑈": 4098,
      "##권": 4099,
      "##망": 4100,
      "##히": 4101,
      "##겠": 4102,
      "##혼": 4103,
      "##했": 4104,
      "##세": 4105,
      "##문": 4106,
      "##독": 4107,
      "##모": 4108,
      "##그": 4109,
      "##응": 4110,
      "##장": 4111,
      "##살": 4112,
      "##또": 4113,
      "##앙": 4114,
      "##분": 4115,
      "##않": 4116,
      "##호": 4117,
      "##판": 4118,
      "##8": 4119,
      "##4": 4120,
      "##담": 4121,
      "##게": 4122,
      "##냐": 4123,
      "##황": 4124,
      "##왔": 4125,
      "##럽": 4126,
      "##반": 4127,
      "##복": 4128,
      "##별": 4129,
      "##실": 4130,
      "##현": 4131,
      "##밖": 4132,
      "##능": 4133,
      "##력": 4134,
      "##보": 4135,
      "##더": 4136,
      "##예": 4137,
      "##애": 4138,
      "##양": 4139,
      "##울": 4140,
      "##청": 4141,
      "##등": 4142,
      "##수": 4143,
      "##척": 4144,
      "##계": 4145,
      "##획": 4146,
      "##놓": 4147,
      "##송": 4148,
      "##피": 4149,
      "##절": 4150,
      "##통": 4151,
      "##범": 4152,
      "##죄": 4153,
      "##몰": 4154,
      "##카": 4155,
      "##건": 4156,
      "##t": 4157,
      "##o": 4158,
      "##p": 4159,
      "##s": 4160,
      "##e": 4161,
      "##x": 4162,
      "##l": 4163,
      "##i": 4164,
      "##a": 4165,
      "##n": 4166,
      "##연": 4167,
      "##씨": 4168,
      "##같": 4169,
      "##말": 4170,
      "##객": 4171,
      "##힐": 4172,
      "##족": 4173,
      "##테": 4174,
      "##따": 4175,
      "##감": 4176,
      "##비": 4177,
      "##적": 4178,
      "##키": 4179,
      "##위": 4180,
      "##동": 4181,
      "##차": 4182,
      "##달": 4183,
      "##싶": 4184,
      "##엇": 4185,
      "##강": 4186,
      "##됩": 4187,
      "##쁘": 4188,
      "##셨": 4189,
      "##림": 4190,
      "##떡": 4191,
      "##안": 4192,
      "##령": 4193,
      "##관": 4194,
      "##엔": 4195,
      "##택": 4196,
      "##십": 4197,
      "##률": 4198,
      "##음": 4199,
      "##타": 4200,
      "##날": 4201,
      "##d": 4202,
      "##금": 4203,
      "##낸": 4204,
      "##홍": 4205,
      "##춰": 4206,
      "##쇼": 4207,
      "##론": 4208,
      "##배": 4209,
      "##겁": 4210,
      "##였": 4211,
      "##있": 4212,
      "##물": 4213,
      "##런": 4214,
      "##포": 4215,
      "##월": 4216,
      "##잡": 4217,
      "##작": 4218,
      "##업": 4219,
      "##워": 4220,
      "##섭": 4221,
      "##낙": 4222,
      "##처": 4223,
      "##길": 4224,
      "##악": 4225,
      "##트": 4226,
      "##7": 4227,
      "##린": 4228,
      "##학": 4229,
      "##바": 4230,
      "##탕": 4231,
      "##쟁": 4232,
      "##ั": 4233,
      "##น": 4234,
      "##เ": 4235,
      "##ฝ": 4236,
      "##้": 4237,
      "##า": 4238,
      "##ไ": 4239,
      "##ม": 4240,
      "##่": 4241,
      "##ส": 4242,
      "##ใ": 4243,
      "##จ": 4244,
      "##ฉ": 4245,
      "##แ": 4246,
      "##ล": 4247,
      "##ะ": 4248,
      "##ค": 4249,
      "##ย": 4250,
      "##ห": 4251,
      "##็": 4252,
      "##ี": 4253,
      "##ท": 4254,
      "##ด": 4255,
      "##ข": 4256,
      "##อ": 4257,
      "##ง": 4258,
      "##พ": 4259,
      "##h": 4260,
      "##때": 4261,
      "##많": 4262,
      "##6": 4263,
      "##억": 4264,
      "##필": 4265,
      "##버": 4266,
      "##격": 4267,
      "##접": 4268,
      "##노": 4269,
      "##걸": 4270,
      "##래": 4271,
      "##임": 4272,
      "##저": 4273,
      "##3": 4274,
      "##채": 4275,
      "##올": 4276,
      "##텐": 4277,
      "##답": 4278,
      "##누": 4279,
      "##간": 4280,
      "##근": 4281,
      "##첨": 4282,
      "##생": 4283,
      "##열": 4284,
      "##느": 4285,
      "##?": 4286,
      "##개": 4287,
      "##취": 4288,
      "##튜": 4289,
      "##브": 4290,
      "##번": 4291,
      "##께": 4292,
      "##립": 4293,
      "##릇": 4294,
      "##승": 4295,
      "##견": 4296,
      "##쳐": 4297,
      "##먹": 4298,
      "##힘": 4299,
      "##름": 4300,
      "##님": 4301,
      "##큰": 4302,
      "##움": 4303,
      "##될": 4304,
      "##우": 4305,
      "##져": 4306,
      "##겹": 4307,
      "##칩": 4308,
      "##급": 4309,
      "##퇴": 4310,
      "##혈": 4311,
      "##민": 4312,
      "##긴": 4313,
      "##추": 4314,
      "##쯤": 4315,
      "##탈": 4316,
      "##킴": 4317,
      "##꾼": 4318,
      "##콘": 4319,
      "##평": 4320,
      "##군": 4321,
      "##옵": 4322,
      "##션": 4323,
      "##S": 4324,
      "##I": 4325,
      "##납": 4326,
      "##딛": 4327,
      "##색": 4328,
      "##y": 4329,
      "##검": 4330,
      "##증": 4331,
      "##템": 4332,
      "##두": 4333,
      "##훈": 4334,
      "##종": 4335,
      "##람": 4336,
      "##몸": 4337,
      "##난": 4338,
      "##톤": 4339,
      "##태": 4340,
      "##념": 4341,
      "##b": 4342,
      "##쪽": 4343,
      "##준": 4344,
      "##료": 4345,
      "##줍": 4346,
      "##렉": 4347,
      "##환": 4348,
      "##픈": 4349,
      "##겨": 4350,
      "##된": 4351,
      "##레": 4352,
      "##베": 4353,
      "##착": 4354,
      "##켜": 4355,
      "##봐": 4356,
      "##잔": 4357,
      "##본": 4358,
      "##폭": 4359,
      "##탄": 4360,
      "##균": 4361,
      "##형": 4362,
      "##란": 4363,
      "##헤": 4364,
      "##뜨": 4365,
      "##새": 4366,
      "##릎": 4367,
      "##죠": 4368,
      "##칼": 4369,
      "##투": 4370,
      "##미": 4371,
      "##매": 4372,
      "##혁": 4373,
      "##품": 4374,
      "##특": 4375,
      "##징": 4376,
      "##랑": 4377,
      "##남": 4378,
      "##줄": 4379,
      "##낮": 4380,
      "##밀": 4381,
      "##설": 4382,
      "##루": 4383,
      "##록": 4384,
      "##짜": 4385,
      "##책": 4386,
      "##잘": 4387,
      "##찰": 4388,
      "##켰": 4389,
      "##익": 4390,
      "##희": 4391,
      "##층": 4392,
      "##꿔": 4393,
      "##른": 4394,
      "##딱": 4395,
      "##류": 4396,
      "##뜩": 4397,
      "##흘": 4398,
      "##편": 4399,
      "##향": 4400,
      "##써": 4401,
      "##크": 4402,
      "##효": 4403,
      "##갑": 4404,
      "##O": 4405,
      "##백": 4406,
      "##빠": 4407,
      "##프": 4408,
      "##뛰": 4409,
      "##불": 4410,
      "##째": 4411,
      "##량": 4412,
      "##험": 4413,
      "##철": 4414,
      "##뻿": 4415,
      "##혜": 4416,
      "##졋": 4417,
      "##파": 4418,
      "##먼": 4419,
      "##떠": 4420,
      "##냅": 4421,
      "##뿌": 4422,
      "##꾸": 4423,
      "##앞": 4424,
      "##묻": 4425,
      "##\"": 4426,
      "##(": 4427,
      "##커": 4428,
      "##녕": 4429,
      "##네": 4430,
      "##액": 4431,
      "##짓": 4432,
      "##_": 4433,
      "##랙": 4434,
      "##옷": 4435,
      "##벽": 4436,
      "##알": 4437,
      "##렸": 4438,
      "##득": 4439,
      "##페": 4440,
      "##옆": 4441,
      "##엡": 4442,
      "##묵": 4443,
      "##르": 4444,
      "##팀": 4445,
      "##낳": 4446,
      "##순": 4447,
      "##잉": 4448,
      "##친": 4449,
      "##례": 4450,
      "##첩": 4451,
      "##창": 4452,
      "##킹": 4453,
      "##코": 4454,
      "##,": 4455,
      "##침": 4456,
      "##찮": 4457,
      "##궤": 4458,
      "##눈": 4459,
      "##쌔": 4460,
      "##석": 4461,
      "##외": 4462,
      "##뉴": 4463,
      "##얼": 4464,
      "##짱": 4465,
      "##쁨": 4466,
      "##손": 4467,
      "##놈": 4468,
      "##함": 4469,
      "##P": 4470,
      "##케": 4471,
      "##쇄": 4472,
      "##목": 4473,
      "##닌": 4474,
      "##늘": 4475,
      "##총": 4476,
      "##뇌": 4477,
      "##w": 4478,
      "##돼": 4479,
      "##휘": 4480,
      "##빨": 4481,
      "##온": 4482,
      "##옥": 4483,
      "##엽": 4484,
      "##읍": 4485,
      "##톱": 4486,
      "##뻔": 4487,
      "##확": 4488,
      "##u": 4489,
      "##곤": 4490,
      "##풀": 4491,
      "##락": 4492,
      "##껴": 4493,
      "##士": 4494,
      "##잖": 4495,
      "##욕": 4496,
      "##땅": 4497,
      "##칭": 4498,
      "##율": 4499,
      "##햇": 4500,
      "##봉": 4501,
      "##못": 4502,
      "##륭": 4503,
      "##머": 4504,
      "##둘": 4505,
      "##글": 4506,
      "##픽": 4507,
      "##골": 4508,
      "##막": 4509,
      "##궁": 4510,
      "##혀": 4511,
      "##랍": 4512,
      "##힌": 4513,
      "##D": 4514,
      "##딩": 4515,
      "##죽": 4516,
      "##g": 4517,
      "##련": 4518,
      "##됀": 4519,
      "##쿵": 4520,
      "##댄": 4521,
      "##슈": 4522,
      "##넘": 4523,
      "##땐": 4524,
      "##핍": 4525,
      "##햐": 4526,
      "##티": 4527,
      "##탁": 4528,
      "##꿀": 4529,
      "##꺼": 4530,
      "##썩": 4531,
      "##싫": 4532,
      "##럼": 4533,
      "##축": 4534,
      "##존": 4535,
      "##플": 4536,
      "##푼": 4537,
      "##똑": 4538,
      "##쿄": 4539,
      "##허": 4540,
      "##압": 4541,
      "##농": 4542,
      "##렇": 4543,
      "##충": 4544,
      "##럭": 4545,
      "##겐": 4546,
      "##맹": 4547,
      "##규": 4548,
      "##줌": 4549,
      "##큽": 4550,
      "##પ": 4551,
      "##팅": 4552,
      "##뤄": 4553,
      "##숍": 4554,
      "##뒹": 4555,
      "##핑": 4556,
      "##싱": 4557,
      "##횟": 4558,
      "##좌": 4559,
      "##뮬": 4560,
      "##솔": 4561,
      "##듯": 4562,
      "##귄": 4563,
      "##떤": 4564,
      "##값": 4565,
      "##놨": 4566,
      "##맞": 4567,
      "##됄": 4568,
      "##핵": 4569,
      "##E": 4570,
      "##F": 4571,
      "##램": 4572,
      "##센": 4573,
      "##룸": 4574,
      "##끝": 4575,
      "##덕": 4576,
      "##켓": 4577,
      "##패": 4578,
      "##돌": 4579,
      "##Q": 4580,
      "##흡": 4581,
      "##혹": 4582,
      "##봄": 4583,
      "##졸": 4584,
      "##웁": 4585,
      "##뭐": 4586,
      "##둑": 4587,
      "##갔": 4588,
      "##광": 4589,
      "##냈": 4590,
      "##쩡": 4591,
      "##뒤": 4592,
      "##줘": 4593,
      "##믿": 4594,
      "##겟": 4595,
      "##언": 4596,
      "##벨": 4597,
      "##냥": 4598,
      "##얀": 4599,
      "##찌": 4600,
      "##ᆢ": 4601,
      "##끄": 4602,
      "##家": 4603,
      "##貧": 4604,
      "##v": 4605,
      "##긋": 4606,
      "##G": 4607,
      "##W": 4608,
      "##*": 4609,
      "##쓰": 4610,
      "##최": 4611,
      "##랄": 4612,
      "##룡": 4613,
      "##슬": 4614,
      "##T": 4615,
      "##숙": 4616,
      "##컴": 4617,
      "##캐": 4618,
      "##녁": 4619,
      "##메": 4620,
      "##폐": 4621,
      "##맡": 4622,
      "##쳤": 4623,
      "##참": 4624,
      "##초": 4625,
      "##똥": 4626,
      "##핸": 4627,
      "##폰": 4628,
      "##칫": 4629,
      "##즈": 4630,
      "##엄": 4631,
      "##듭": 4632,
      "##싼": 4633,
      "##큼": 4634,
      "##V": 4635,
      "##극": 4636,
      "##줬": 4637,
      "##므": 4638,
      "##쌈": 4639,
      "##너": 4640,
      "##텔": 4641,
      "##헌": 4642,
      "##돈": 4643,
      "##ㆍ": 4644,
      "##킬": 4645,
      "##앗": 4646,
      "##굼": 4647,
      "##엿": 4648,
      "##렘": 4649,
      "##꼬": 4650,
      "##완": 4651,
      "##굿": 4652,
      "##닝": 4653,
      "##썬": 4654,
      "##B": 4655,
      "##및": 4656,
      "##핀": 4657,
      "##ㅐ": 4658,
      "##링": 4659,
      "##겼": 4660,
      "##됐": 4661,
      "##곡": 4662,
      "##J": 4663,
      "##슨": 4664,
      "##갖": 4665,
      "##떨": 4666,
      "##김": 4667,
      "##댁": 4668,
      "##)": 4669,
      "##.": 4670,
      "##렷": 4671,
      "##맥": 4672,
      "##묭": 4673,
      "##쉼": 4674,
      "##톡": 4675,
      "##탓": 4676,
      "##펴": 4677,
      "##멘": 4678,
      "##셜": 4679,
      "##H": 4680,
      "##춤": 4681,
      "##롭": 4682,
      "##챙": 4683,
      "##덤": 4684,
      "##떻": 4685,
      "##끔": 4686,
      "##낌": 4687,
      "##윈": 4688,
      "##봅": 4689,
      "##융": 4690,
      "##칠": 4691,
      "##'": 4692,
      "##行": 4693,
      "##몽": 4694,
      "##쉬": 4695,
      "##닥": 4696,
      "##렵": 4697,
      "##r": 4698,
      "##Y": 4699,
      "##닙": 4700,
      "##났": 4701,
      "##귀": 4702,
      "##짭": 4703,
      "##뇨": 4704,
      "##괴": 4705,
      "##꿈": 4706,
      "##ㅡ": 4707,
      "##껀": 4708,
      "##앰": 4709,
      "##”": 4710,
      "##쓴": 4711,
      "##볼": 4712,
      "##놀": 4713,
      "##쉽": 4714,
      "##릴": 4715,
      "##풉": 4716,
      "##럴": 4717,
      "##블": 4718,
      "##짐": 4719,
      "##찔": 4720,
      "##휴": 4721,
      "##「": 4722,
      "##幌": 4723,
      "##の": 4724,
      "##地": 4725,
      "##下": 4726,
      "##鉄": 4727,
      "##읽": 4728,
      "##냉": 4729,
      "##둔": 4730,
      "##빈": 4731,
      "##꼿": 4732,
      "##략": 4733,
      "##끌": 4734,
      "##맛": 4735,
      "##狗": 4736,
      "##빙": 4737,
      "##걱": 4738,
      "##뀌": 4739,
      "##퀴": 4740,
      "##k": 4741,
      "##찬": 4742,
      "##흔": 4743,
      "##춘": 4744,
      "##붓": 4745,
      "##짚": 4746,
      "##얘": 4747,
      "##롱": 4748,
      "##빚": 4749,
      "##씀": 4750,
      "##놔": 4751,
      "##촉": 4752,
      "##N": 4753,
      "##/": 4754,
      "##깐": 4755,
      "##쩌": 4756,
      "##냄": 4757,
      "##쌍": 4758,
      "##U": 4759,
      "##듣": 4760,
      "##갱": 4761,
      "##A": 4762,
      "##K": 4763,
      "##혐": 4764,
      "##꼴": 4765,
      "##츠": 4766,
      "##혔": 4767,
      "##눕": 4768,
      "##붙": 4769,
      "##넣": 4770,
      "##맨": 4771,
      "##빛": 4772,
      "##랭": 4773,
      "##섰": 4774,
      "##털": 4775,
      "##~": 4776,
      "##콤": 4777,
      "##녹": 4778,
      "##옹": 4779,
      "##뜯": 4780,
      "##멤": 4781,
      "##싸": 4782,
      "##찾": 4783,
      "##묘": 4784,
      "##댕": 4785,
      "##즐": 4786,
      "##밥": 4787,
      "##R": 4788,
      "##톨": 4789,
      "##릭": 4790,
      "##앤": 4791,
      "##잇": 4792,
      "##쓱": 4793,
      "##슴": 4794,
      "##캠": 4795,
      "##널": 4796,
      "##南": 4797,
      "##델": 4798,
      "##뽈": 4799,
      "##낼": 4800,
      "##댈": 4801,
      "##컵": 4802,
      "##M": 4803,
      "##흥": 4804,
      "##ㅠ": 4805,
      "##높": 4806,
      "##멍": 4807,
      "##벤": 4808,
      "##봇": 4809,
      "##덩": 4810,
      "##떄": 4811,
      "##휠": 4812,
      "##댓": 4813,
      "##렴": 4814,
      "##랐": 4815,
      "##ㅇ": 4816,
      "##펜": 4817,
      "##밍": 4818,
      "##떼": 4819,
      "##렌": 4820,
      "##웨": 4821,
      "##괄": 4822,
      "##벗": 4823,
      "##싹": 4824,
      "##빌": 4825,
      "##넷": 4826,
      "##듦": 4827,
      "##릅": 4828,
      "##;": 4829,
      "##팡": 4830,
      "##팽": 4831,
      "##뎌": 4832,
      "##탱": 4833,
      "##텅": 4834,
      "##닫": 4835,
      "##콩": 4836,
      "##돟": 4837,
      "##f": 4838,
      "##뻐": 4839,
      "##클": 4840,
      "##!": 4841,
      "##흰": 4842,
      "##딴": 4843,
      "##윤": 4844,
      "##횡": 4845,
      "##셉": 4846,
      "##돔": 4847,
      "##픔": 4848,
      "##틴": 4849,
      "##봣": 4850,
      "##킨": 4851,
      "##บ": 4852,
      "##ว": 4853,
      "##룬": 4854,
      "##궈": 4855,
      "##뚝": 4856,
      "##뻘": 4857,
      "##뜬": 4858,
      "##쉴": 4859,
      "##룹": 4860,
      "##쿠": 4861,
      "##♥": 4862,
      "##딸": 4863,
      "##몇": 4864,
      "##딨": 4865,
      "##깨": 4866,
      "##룩": 4867,
      "##렬": 4868,
      "##뿜": 4869,
      "##섯": 4870,
      "##쾌": 4871,
      "##덮": 4872,
      "##얄": 4873,
      "##랴": 4874,
      "##쿨": 4875,
      "##뭔": 4876,
      "##륜": 4877,
      "##떵": 4878,
      "##긱": 4879,
      "##둥": 4880,
      "##섞": 4881,
      "##낀": 4882,
      "##멸": 4883,
      "##앉": 4884,
      "##늄": 4885,
      "##릐": 4886,
      "##찍": 4887,
      "##씬": 4888,
      "##깝": 4889,
      "##짝": 4890,
      "##엠": 4891,
      "##꼽": 4892,
      "##쩍": 4893,
      "##탑": 4894,
      "##果": 4895,
      "##應": 4896,
      "##報": 4897,
      "##밑": 4898,
      "##셧": 4899,
      "##빵": 4900,
      "##웹": 4901,
      "##쁜": 4902,
      "##웠": 4903,
      "##뤼": 4904,
      "##닏": 4905,
      "##엌": 4906,
      "##닛": 4907,
      "##옐": 4908,
      "##맘": 4909,
      "##흐": 4910,
      "##암": 4911,
      "##깅": 4912,
      "##갓": 4913,
      "##덜": 4914,
      "##뽑": 4915,
      "##렛": 4916,
      "##푸": 4917,
      "##컨": 4918,
      "##넉": 4919,
      "##즘": 4920,
      "##肥": 4921,
      "##基": 4922,
      "##準": 4923,
      "##量": 4924,
      "##덴": 4925,
      "##꽝": 4926,
      "##탠": 4927,
      "##칙": 4928,
      "##웅": 4929,
      "##둬": 4930,
      "##틈": 4931,
      "##샵": 4932,
      "##Z": 4933,
      "##삼": 4934,
      "##=": 4935,
      "##씸": 4936,
      "##美": 4937,
      "##利": 4938,
      "##加": 4939,
      "##戍": 4940,
      "##令": 4941,
      "##作": 4942,
      "##쑤": 4943,
      "##ㅣ": 4944,
      "##ㅋ": 4945,
      "##^": 4946,
      "##짖": 4947,
      "##뢰": 4948,
      "##굽": 4949,
      "##텁": 4950,
      "##깡": 4951,
      "##잠": 4952,
      "##촌": 4953,
      "##뮤": 4954,
      "##툼": 4955,
      "##됏": 4956,
      "##빼": 4957,
      "##칸": 4958,
      "##쭤": 4959,
      "##튼": 4960,
      "##띠": 4961,
      "##깊": 4962,
      "##벅": 4963,
      "##끈": 4964,
      "##됍": 4965,
      "##틱": 4966,
      "##녔": 4967,
      "##펙": 4968,
      "##갯": 4969,
      "##퀄": 4970,
      "##웃": 4971,
      "##좋": 4972,
      "##끊": 4973,
      "##젝": 4974,
      "##샹": 4975,
      "##듬": 4976,
      "##깍": 4977,
      "##꿨": 4978,
      "##삭": 4979,
      "##j": 4980,
      "##겔": 4981,
      "##꽂": 4982,
      "##젯": 4983,
      "##밤": 4984,
      "##子": 4985,
      "##믄": 4986,
      "##隱": 4987,
      "##之": 4988,
      "##心": 4989,
      "##◆": 4990,
      "##-": 4991,
      "##→": 4992,
      "##펠": 4993,
      "##릿": 4994,
      "##푶": 4995,
      "##퍼": 4996,
      "##衣": 4997,
      "##뱅": 4998,
      "##둡": 4999,
      "##콧": 5000,
      "##녜": 5001,
      "##밉": 5002,
      "##낯": 5003,
      "##璽": 5004,
      "##큐": 5005,
      "##홀": 5006,
      "##꙼": 5007,
      "##̈": 5008,
      "##밴": 5009,
      "##끗": 5010,
      "##젤": 5011,
      "##둠": 5012,
      "##묶": 5013,
      "##랫": 5014,
      "##⇌": 5015,
      "##잿": 5016,
      "##왓": 5017,
      "##숀": 5018,
      "##꽃": 5019,
      "##텨": 5020,
      "##닷": 5021,
      "##뉜": 5022,
      "##씁": 5023,
      "##롤": 5024,
      "##댐": 5025,
      "##멈": 5026,
      "##앜": 5027,
      "##땜": 5028,
      "##民": 5029,
      "##콜": 5030,
      "##숨": 5031,
      "##논": 5032,
      "##냔": 5033,
      "##%": 5034,
      "##朝": 5035,
      "##生": 5036,
      "##暮": 5037,
      "##死": 5038,
      "##좁": 5039,
      "##껍": 5040,
      "##롬": 5041,
      "##캔": 5042,
      "##뜰": 5043,
      "##됬": 5044,
      "##깔": 5045,
      "##힙": 5046,
      "##튽": 5047,
      "##욱": 5048,
      "##홉": 5049,
      "##닻": 5050,
      "##찹": 5051,
      "##땡": 5052,
      "##옮": 5053,
      "##뜸": 5054,
      "##쑥": 5055,
      "##뒀": 5056,
      "##µ": 5057,
      "##밸": 5058,
      "##풋": 5059,
      "##앓": 5060,
      "##뵙": 5061,
      "##웟": 5062,
      "##껄": 5063,
      "##읨": 5064,
      "##왈": 5065,
      "##쩐": 5066,
      "##낭": 5067,
      "##삿": 5068,
      "##잃": 5069,
      "##돋": 5070,
      "##얻": 5071,
      "##잏": 5072,
      "##엘": 5073,
      "##쭐": 5074,
      "##탐": 5075,
      "##펀": 5076,
      "##늠": 5077,
      "##갰": 5078,
      "##쫓": 5079,
      "##칮": 5080,
      "##갸": 5081,
      "##뚱": 5082,
      "##멩": 5083,
      "##밭": 5084,
      "##@": 5085,
      "##ㅂ": 5086,
      "##흙": 5087,
      "##휙": 5088,
      "##턴": 5089,
      "##딘": 5090,
      "##田": 5091,
      "##밝": 5092,
      "##좔": 5093,
      "##쭈": 5094,
      "##|": 5095,
      "##잣": 5096,
      "##局": 5097,
      "##뺑": 5098,
      "##몱": 5099,
      "##ㅑ": 5100,
      "##깁": 5101,
      "##맺": 5102,
      "##쫑": 5103,
      "##ㅜ": 5104,
      "##쳣": 5105,
      "##빕": 5106,
      "##긍": 5107,
      "##륙": 5108,
      "##쩔": 5109,
      "##땀": 5110,
      "##뱉": 5111,
      "##來": 5112,
      "##人": 5113,
      "##몬": 5114,
      "##位": 5115,
      "##一": 5116,
      "##體": 5117,
      "##信": 5118,
      "##仰": 5119,
      "##삐": 5120,
      "##劇": 5121,
      "##촛": 5122,
      "##…": 5123,
      "##‘": 5124,
      "##헛": 5125,
      "##팸": 5126,
      "##닦": 5127,
      "##깥": 5128,
      "##헉": 5129,
      "##ㅎ": 5130,
      "##셋": 5131,
      "##핟": 5132,
      "##꿇": 5133,
      "##쫒": 5134,
      "##흉": 5135,
      "##낄": 5136,
      "##랩": 5137,
      "##눠": 5138,
      "##쌓": 5139,
      "##턱": 5140,
      "##헙": 5141,
      "##쓸": 5142,
      "##졍": 5143,
      "##펑": 5144,
      "##쟈": 5145,
      "##귤": 5146,
      "##]": 5147,
      "##⃞": 5148,
      "##쿼": 5149,
      "##왜": 5150,
      "##닉": 5151,
      "##［": 5152,
      "##눔": 5153,
      "##뛸": 5154,
      "##\\": 5155,
      "##먄": 5156,
      "##훼": 5157,
      "##섬": 5158,
      "##맷": 5159,
      "##뷰": 5160,
      "##긁": 5161,
      "##엉": 5162,
      "##딪": 5163,
      "##興": 5164,
      "##十": 5165,
      "##四": 5166,
      "##坊": 5167,
      "##댑": 5168,
      "##뎅": 5169,
      "##빴": 5170,
      "##ㄱ": 5171,
      "##ㅕ": 5172,
      "##ㄹ": 5173,
      "##궂": 5174,
      "##뺌": 5175,
      "##겪": 5176,
      "##在": 5177,
      "##賢": 5178,
      "##웍": 5179,
      "##벙": 5180,
      "##벼": 5181,
      "##곱": 5182,
      "##獸": 5183,
      "##z": 5184,
      "##q": 5185,
      "##會": 5186,
      "##텍": 5187,
      "##씌": 5188,
      "##칵": 5189,
      "##뼘": 5190,
      "##컬": 5191,
      "##썻": 5192,
      "##옴": 5193,
      "##늦": 5194,
      "##앨": 5195,
      "##윗": 5196,
      "##볕": 5197,
      "##쎈": 5198,
      "##슭": 5199,
      "##띈": 5200,
      "##챠": 5201,
      "##랏": 5202,
      "##갚": 5203,
      "##빡": 5204,
      "##쭙": 5205,
      "##릉": 5206,
      "##벳": 5207,
      "##늉": 5208,
      "##렁": 5209,
      "##쁠": 5210,
      "##홈": 5211,
      "##썰": 5212,
      "##촬": 5213,
      "##탔": 5214,
      "##밟": 5215,
      "##챘": 5216,
      "##뜻": 5217,
      "##": 5218,
      "###": 5219,
      "##>": 5220,
      "##삶": 5221,
      "##숭": 5222,
      "##뼈": 5223,
      "##볍": 5224,
      "##맙": 5225,
      "##폼": 5226,
      "##셈": 5227,
      "##ํ": 5228,
      "##ร": 5229,
      "##ก": 5230,
      "##ุ": 5231,
      "##ฯ": 5232,
      "##ู": 5233,
      "##ภ": 5234,
      "##ษ": 5235,
      "##ฤ": 5236,
      "##퓨": 5237,
      "##멀": 5238,
      "##헬": 5239,
      "##럐": 5240,
      "##랗": 5241,
      "##젖": 5242,
      "##걀": 5243,
      "##積": 5244,
      "##島": 5245,
      "##롄": 5246,
      "##옸": 5247,
      "##꽁": 5248,
      "##씹": 5249,
      "##넥": 5250,
      "##꼈": 5251,
      "##낫": 5252,
      "##큘": 5253,
      "##‥": 5254,
      "##뮌": 5255,
      "##잊": 5256,
      "##눌": 5257,
      "##롯": 5258,
      "##팬": 5259,
      "##켑": 5260,
      "##슐": 5261,
      "##샐": 5262,
      "##젊": 5263,
      "##컫": 5264,
      "##탭": 5265,
      "##킵": 5266,
      "##잭": 5267,
      "##쏠": 5268,
      "##땠": 5269,
      "##셰": 5270,
      "##ㅔ": 5271,
      "##쨌": 5272,
      "##욬": 5273,
      "##헨": 5274,
      "##닺": 5275,
      "##뀝": 5276,
      "##②": 5277,
      "##뉘": 5278,
      "##짠": 5279,
      "##닳": 5280,
      "##흑": 5281,
      "##냦": 5282,
      "##意": 5283,
      "##쎄": 5284,
      "##뤠": 5285,
      "##ㅈ": 5286,
      "##빤": 5287,
      "##쌌": 5288,
      "##女": 5289,
      "##즉": 5290,
      "##닿": 5291,
      "##퉁": 5292,
      "##폴": 5293,
      "##껏": 5294,
      "##굻": 5295,
      "##©": 5296,
      "##탬": 5297,
      "##̣": 5298,
      "##뭡": 5299,
      "##곗": 5300,
      "##○": 5301,
      "##엑": 5302,
      "##띵": 5303,
      "##찝": 5304,
      "##붉": 5305,
      "##컹": 5306,
      "##숫": 5307,
      "##쵸": 5308,
      "##룻": 5309,
      "##삯": 5310,
      "##솜": 5311,
      "##첫": 5312,
      "##팍": 5313,
      "##곽": 5314,
      "##쩠": 5315,
      "##可": 5316,
      "##겍": 5317,
      "##똘": 5318,
      "##갠": 5319,
      "##딧": 5320,
      "##찻": 5321,
      "##앴": 5322,
      "##ซ": 5323,
      "##ื": 5324,
      "##ิ": 5325,
      "##白": 5326,
      "##①": 5327,
      "##짤": 5328,
      "##밨": 5329,
      "##」": 5330,
      "##잎": 5331,
      "##걷": 5332,
      "##찡": 5333,
      "##낑": 5334,
      "##숲": 5335,
      "##츌": 5336,
      "##픕": 5337,
      "##뻗": 5338,
      "##캄": 5339,
      "##짧": 5340,
      "##뺴": 5341,
      "##첵": 5342,
      "##쇠": 5343,
      "##엎": 5344,
      "##蔑": 5345,
      "##뷔": 5346,
      "##벜": 5347,
      "##몄": 5348,
      "##쌤": 5349,
      "##쫌": 5350,
      "##뱃": 5351,
      "##곁": 5352,
      "##淸": 5353,
      "##즌": 5354,
      "##넨": 5355,
      "##뻤": 5356,
      "##틸": 5357,
      "##꼭": 5358,
      "##宗": 5359,
      "##年": 5360,
      "##돠": 5361,
      "##텝": 5362,
      "##ㅓ": 5363,
      "##̄": 5364,
      "##겄": 5365,
      "##녘": 5366,
      "##<": 5367,
      "##富": 5368,
      "##亡": 5369,
      "##川": 5370,
      "##籍": 5371,
      "##不": 5372,
      "##附": 5373,
      "##合": 5374,
      "##新": 5375,
      "##病": 5376,
      "##ㅅ": 5377,
      "##ｍ": 5378,
      "##븐": 5379,
      "##픝": 5380,
      "##字": 5381,
      "##ㅏ": 5382,
      "##츨": 5383,
      "##木": 5384,
      "##脫": 5385,
      "##돤": 5386,
      "##듈": 5387,
      "##쥬": 5388,
      "##훔": 5389,
      "##江": 5390,
      "##有": 5391,
      "##水": 5392,
      "##千": 5393,
      "##月": 5394,
      "##凍": 5395,
      "##骨": 5396,
      "##쏘": 5397,
      "##곪": 5398,
      "##뭄": 5399,
      "##씽": 5400,
      "##췌": 5401,
      "##슷": 5402,
      "##뭉": 5403,
      "##밋": 5404,
      "##官": 5405,
      "##山": 5406,
      "##뺐": 5407,
      "##닭": 5408,
      "##췄": 5409,
      "##팎": 5410,
      "##왼": 5411,
      "##냇": 5412,
      "##댔": 5413,
      "##툴": 5414,
      "##쨋": 5415,
      "##헝": 5416,
      "##낍": 5417,
      "##社": 5418,
      "##깃": 5419,
      "##삽": 5420,
      "##깜": 5421,
      "##昻": 5422,
      "##揚": 5423,
      "##大": 5424,
      "##講": 5425,
      "##演": 5426,
      "##땢": 5427,
      "##ㅁ": 5428,
      "##륵": 5429,
      "##댜": 5430,
      "##『": 5431,
      "##먀": 5432,
      "##’": 5433,
      "##앱": 5434,
      "##뫄": 5435,
      "##ㄴ": 5436,
      "##̆": 5437,
      "##멊": 5438,
      "##샀": 5439,
      "##펌": 5440,
      "##듀": 5441,
      "##뀐": 5442,
      "##헣": 5443,
      "##핳": 5444,
      "##퓰": 5445,
      "##쎅": 5446,
      "##긒": 5447,
      "##文": 5448,
      "##出": 5449,
      "##뻣": 5450,
      "##倍": 5451,
      "##晋": 5452,
      "##三": 5453,
      "##곧": 5454,
      "##럿": 5455,
      "##:": 5456,
      "##딜": 5457,
      "##옛": 5458,
      "##찼": 5459,
      "##곰": 5460,
      "##겅": 5461,
      "##쥴": 5462,
      "##血": 5463,
      "##鬼": 5464,
      "##뚤": 5465,
      "##돗": 5466,
      "##몆": 5467,
      "##쁩": 5468,
      "##됫": 5469,
      "##ㄷ": 5470,
      "##맂": 5471,
      "##넜": 5472,
      "##좃": 5473,
      "##맵": 5474,
      "##“": 5475,
      "##↑": 5476,
      "##앟": 5477,
      "##앚": 5478,
      "##샘": 5479,
      "##깻": 5480,
      "##쎤": 5481,
      "##찐": 5482,
      "##돕": 5483,
      "##훌": 5484,
      "##쫏": 5485,
      "##괸": 5486,
      "##룰": 5487,
      "##껌": 5488,
      "##빗": 5489,
      "##日": 5490,
      "##덧": 5491,
      "##낱": 5492,
      "##쉅": 5493,
      "##튀": 5494,
      "##멋": 5495,
      "##튿": 5496,
      "##論": 5497,
      "##轮": 5498,
      "##功": 5499,
      "##떳": 5500,
      "##̐": 5501,
      "##뽐": 5502,
      "##넓": 5503,
      "##휑": 5504,
      "##멓": 5505,
      "##し": 5506,
      "##ょ": 5507,
      "##う": 5508,
      "##さ": 5509,
      "##ん": 5510,
      "##み": 5511,
      "##굳": 5512,
      "##픙": 5513,
      "##̊": 5514,
      "##팝": 5515,
      "##짞": 5516,
      "##봥": 5517,
      "##셀": 5518,
      "##켯": 5519,
      "##믹": 5520,
      "##붇": 5521,
      "##뻇": 5522,
      "##갤": 5523,
      "##솟": 5524,
      "##솥": 5525,
      "##[": 5526,
      "##슥": 5527,
      "##킥": 5528,
      "##줜": 5529,
      "##聲": 5530,
      "##高": 5531,
      "##♠": 5532,
      "##푹": 5533,
      "##욜": 5534,
      "##굉": 5535,
      "##⟩": 5536,
      "##깟": 5537,
      "##火": 5538,
      "##国": 5539,
      "##넬": 5540,
      "##뗀": 5541,
      "##庵": 5542,
      "##正": 5543,
      "##受": 5544,
      "##궐": 5545,
      "##젼": 5546,
      "##늣": 5547,
      "##붕": 5548,
      "##툰": 5549,
      "##쏴": 5550,
      "##젓": 5551,
      "##댱": 5552,
      "##奉": 5553,
      "##公": 5554,
      "##덯": 5555,
      "##짒": 5556,
      "##道": 5557,
      "##꼄": 5558,
      "##ᆞ": 5559,
      "##젠": 5560,
      "##벚": 5561,
      "##숩": 5562,
      "##뽕": 5563,
      "##흠": 5564,
      "##+": 5565,
      "##쪼": 5566,
      "##去": 5567,
      "##主": 5568,
      "##黨": 5569,
      "##뺏": 5570,
      "##빳": 5571,
      "##쾅": 5572,
      "##얌": 5573,
      "##義": 5574,
      "##얹": 5575,
      "##엥": 5576,
      "##밎": 5577,
      "##쏙": 5578,
      "##🔥": 5579,
      "##퐁": 5580,
      "##냠": 5581,
      "##防": 5582,
      "##썹": 5583,
      "##떴": 5584,
      "##맇": 5585,
      "##딫": 5586,
      "##싯": 5587,
      "##욧": 5588,
      "##햬": 5589,
      "##콕": 5590,
      "##냬": 5591,
      "##셕": 5592,
      "##밪": 5593,
      "##즙": 5594,
      "##륟": 5595,
      "##ㅊ": 5596,
      "##뭇": 5597,
      "##팠": 5598,
      "##녓": 5599,
      "##쌀": 5600,
      "##괘": 5601,
      "##젬": 5602,
      "##잤": 5603,
      "##感": 5604,
      "##뤘": 5605,
      "##셍": 5606,
      "##漢": 5607,
      "##永": 5608,
      "##몈": 5609,
      "##⇛": 5610,
      "##〚": 5611,
      "##겸": 5612,
      "##벵": 5613,
      "##깬": 5614,
      "##쳬": 5615,
      "##👍": 5616,
      "##👋": 5617,
      "##썼": 5618,
      "##꺄": 5619,
      "##헥": 5620,
      "##斷": 5621,
      "##務": 5622,
      "##總": 5623,
      "##監": 5624,
      "##部": 5625,
      "##켈": 5626,
      "##脈": 5627,
      "##}": 5628,
      "##컷": 5629,
      "##台": 5630,
      "##市": 5631,
      "##췰": 5632,
      "##듐": 5633,
      "##괜": 5634,
      "##샌": 5635,
      "##휭": 5636,
      "##뀔": 5637,
      "##찿": 5638,
      "##半": 5639,
      "##눗": 5640,
      "##잰": 5641,
      "##兵": 5642,
      "##찟": 5643,
      "##죙": 5644,
      "##過": 5645,
      "##失": 5646,
      "##也": 5647,
      "##랸": 5648,
      "##治": 5649,
      "##權": 5650,
      "##겧": 5651,
      "##찢": 5652,
      "##《": 5653,
      "##붐": 5654,
      "##㈜": 5655,
      "##뒷": 5656,
      "##海": 5657,
      "##뚜": 5658,
      "##껑": 5659,
      "##썽": 5660,
      "##늑": 5661,
      "##밞": 5662,
      "##案": 5663,
      "##뎃": 5664,
      "##怠": 5665,
      "##쨰": 5666,
      "##郡": 5667,
      "##守": 5668,
      "##蘭": 5669,
      "##西": 5670,
      "##엊": 5671,
      "##♡": 5672,
      "##耕": 5673,
      "##뀜": 5674,
      "##載": 5675,
      "##寶": 5676,
      "##☛": 5677,
      "##윌": 5678,
      "##뭘": 5679,
      "##눅": 5680,
      "##릂": 5681,
      "##갗": 5682,
      "##財": 5683,
      "##戰": 5684,
      "##맴": 5685,
      "##北": 5686,
      "##켄": 5687,
      "##꼐": 5688,
      "##我": 5689,
      "##幅": 5690,
      "##圓": 5691,
      "##里": 5692,
      "##想": 5693,
      "##湖": 5694,
      "##國": 5695,
      "##保": 5696,
      "##障": 5697,
      "##賦": 5698,
      "##的": 5699,
      "##꿍": 5700,
      "##띄": 5701,
      "##〈": 5702,
      "##物": 5703,
      "##車": 5704,
      "##㎥": 5705,
      "##◇": 5706,
      "##궝": 5707,
      "##깎": 5708,
      "##닊": 5709,
      "##←": 5710,
      "##{": 5711,
      "##須": 5712,
      "##順": 5713,
      "##【": 5714,
      "##굣": 5715,
      "##苦": 5716,
      "##엣": 5717,
      "##뻑": 5718,
      "##쟎": 5719,
      "##켠": 5720,
      "##帝": 5721,
      "##⇢": 5722,
      "##害": 5723,
      "##無": 5724,
      "##益": 5725,
      "##챴": 5726,
      "##決": 5727,
      "##멧": 5728,
      "##뽀": 5729,
      "##版": 5730,
      "##↞": 5731,
      "##몀": 5732,
      "##끚": 5733,
      "##🖥": 5734,
      "##뽄": 5735,
      "##★": 5736,
      "##샨": 5737,
      "##첸": 5738,
      "##곶": 5739,
      "##뎀": 5740,
      "##렙": 5741,
      "##眞": 5742,
      "##淳": 5743,
      "##옇": 5744,
      "##□": 5745,
      "##뗄": 5746,
      "##刑": 5747,
      "##좆": 5748,
      "##믐": 5749,
      "##퀵": 5750,
      "##갛": 5751,
      "##員": 5752,
      "##任": 5753,
      "##랠": 5754,
      "##샾": 5755,
      "##​": 5756,
      "##톻": 5757,
      "##걔": 5758,
      "##샤": 5759,
      "##낟": 5760,
      "##륨": 5761,
      "##팟": 5762,
      "##멱": 5763,
      "##鹿": 5764,
      "##爲": 5765,
      "##馬": 5766,
      "##퇸": 5767,
      "##政": 5768,
      "##必": 5769,
      "##敗": 5770,
      "##通": 5771,
      "##☏": 5772,
      "##ㅆ": 5773,
      "##뱀": 5774,
      "##語": 5775,
      "##同": 5776,
      "##歌": 5777,
      "##舞": 5778,
      "##핫": 5779,
      "##뮈": 5780,
      "##两": 5781,
      "##制": 5782,
      "##벡": 5783,
      "##經": 5784,
      "##法": 5785,
      "##言": 5786,
      "##學": 5787,
      "##쪄": 5788,
      "##짆": 5789,
      "##옳": 5790,
      "##州": 5791,
      "##用": 5792,
      "##땨": 5793,
      "##깠": 5794,
      "##캣": 5795,
      "##쥐": 5796,
      "##첬": 5797,
      "##뇽": 5798,
      "##끽": 5799,
      "##맟": 5800,
      "##빅": 5801,
      "##졔": 5802,
      "##뼛": 5803,
      "##빽": 5804,
      "##꽤": 5805,
      "##×": 5806,
      "##봽": 5807,
      "##뿔": 5808,
      "##쌩": 5809,
      "##춧": 5810,
      "##곘": 5811,
      "##깰": 5812,
      "##立": 5813,
      "##욤": 5814,
      "##쩜": 5815,
      "##ศ": 5816,
      "##ㅉ": 5817,
      "##늨": 5818,
      "##딥": 5819,
      "##東": 5820,
      "##女": 5821,
      "##밌": 5822,
      "##웰": 5823,
      "##☆": 5824,
      "##査": 5825,
      "##後": 5826,
      "##짹": 5827,
      "##拂": 5828,
      "##텃": 5829,
      "##텼": 5830,
      "##줗": 5831,
      "##※": 5832,
      "##■": 5833,
      "##팜": 5834,
      "##元": 5835,
      "##떢": 5836,
      "##急": 5837,
      "##넹": 5838,
      "##믜": 5839,
      "##딕": 5840,
      "##멕": 5841,
      "##겉": 5842,
      "##及": 5843,
      "##效": 5844,
      "##끓": 5845,
      "##現": 5846,
      "##答": 5847,
      "##캡": 5848,
      "##쏟": 5849,
      "##゚": 5850,
      "##̥": 5851,
      "##꼼": 5852,
      "##꿋": 5853,
      "##챈": 5854,
      "##慮": 5855,
      "##ต": 5856,
      "##ช": 5857,
      "##❹": 5858,
      "##͢": 5859,
      "##몫": 5860,
      "##ㄲ": 5861,
      "##찜": 5862,
      "##핏": 5863,
      "##퉈": 5864,
      "##밈": 5865,
      "##웡": 5866,
      "##뭏": 5867,
      "##定": 5868,
      "##뷴": 5869,
      "##셸": 5870,
      "##겻": 5871,
      "##윙": 5872,
      "##願": 5873,
      "##콥": 5874,
      "##臣": 5875,
      "##秀": 5876,
      "##吉": 5877,
      "##겜": 5878,
      "##헀": 5879,
      "##善": 5880,
      "##惡": 5881,
      "##귝": 5882,
      "##겆": 5883,
      "##갭": 5884,
      "##ㅛ": 5885,
      "##넚": 5886,
      "##宮": 5887,
      "##殿": 5888,
      "##御": 5889,
      "##成": 5890,
      "##婚": 5891,
      "##紀": 5892,
      "##念": 5893,
      "##紫": 5894,
      "##奪": 5895,
      "##朱": 5896,
      "##쌘": 5897,
      "##拒": 5898,
      "##絶": 5899,
      "##덫": 5900,
      "##重": 5901,
      "##쉐": 5902,
      "##궜": 5903,
      "##릏": 5904,
      "##짼": 5905,
      "##폈": 5906,
      "##♬": 5907,
      "##勤": 5908,
      "##本": 5909,
      "##校": 5910,
      "##둣": 5911,
      "##냘": 5912,
      "##遺": 5913,
      "##棄": 5914,
      "##⇋": 5915,
      "##엾": 5916,
      "##굔": 5917,
      "##쫄": 5918,
      "##핥": 5919,
      "##·": 5920,
      "##發": 5921,
      "##`": 5922,
      "##獻": 5923,
      "##身": 5924,
      "##軍": 5925,
      "##分": 5926,
      "##뭍": 5927,
      "##펵": 5928,
      "##앵": 5929,
      "##反": 5930,
      "##젔": 5931,
      "##챦": 5932,
      "##놥": 5933,
      "##쿤": 5934,
      "##릃": 5935,
      "##룁": 5936,
      "##덥": 5937,
      "##핬": 5938,
      "##式": 5939,
      "##韓": 5940,
      "##工": 5941,
      "##良": 5942,
      "##久": 5943,
      "##難": 5944,
      "##族": 5945,
      "##씻": 5946,
      "##亚": 5947,
      "##⇐": 5948,
      "##짢": 5949,
      "##얏": 5950,
      "##〛": 5951,
      "##⇚": 5952,
      "##숴": 5953,
      "##랖": 5954,
      "##設": 5955,
      "##事": 5956,
      "##業": 5957,
      "##쭉": 5958,
      "##斥": 5959,
      "##革": 5960,
      "##믈": 5961,
      "##덟": 5962,
      "##甲": 5963,
      "##和": 5964,
      "##取": 5965,
      "##뚫": 5966,
      "##件": 5967,
      "##뻥": 5968,
      "##괭": 5969,
      "##核": 5970,
      "##化": 5971,
      "##神": 5972,
      "##숱": 5973,
      "##몾": 5974,
      "##歷": 5975,
      "##켔": 5976,
      "##쯔": 5977,
      "##뉨": 5978,
      "##酸": 5979,
      "##꼇": 5980,
      "##輪": 5981,
      "##石": 5982,
      "##塔": 5983,
      "##쏭": 5984,
      "##Ⅱ": 5985,
      "##뎟": 5986,
      "##넛": 5987,
      "##퀘": 5988,
      "##쥔": 5989,
      "##³": 5990,
      "##챌": 5991,
      "##思": 5992,
      "##줫": 5993,
      "##廳": 5994,
      "##늪": 5995,
      "##뵈": 5996,
      "##밣": 5997,
      "##兰": 5998,
      "##◀": 5999,
      "##◯": 6000,
      "##앍": 6001,
      "##틑": 6002,
      "##핡": 6003,
      "##끙": 6004,
      "##&": 6005,
      "##$": 6006,
      "##놧": 6007,
      "##引": 6008,
      "##넌": 6009,
      "##淚": 6010,
      "##落": 6011,
      "##時": 6012,
      "##잋": 6013,
      "##딤": 6014,
      "##눴": 6015,
      "##훠": 6016,
      "##耳": 6017,
      "##情": 6018,
      "##見": 6019,
      "##랁": 6020,
      "##産": 6021,
      "##먕": 6022,
      "##뇸": 6023,
      "##핮": 6024,
      "##府": 6025,
      "##は": 6026,
      "##上": 6027,
      "##王": 6028,
      "##윽": 6029,
      "##컸": 6030,
      "##캉": 6031,
      "##풒": 6032,
      "##삔": 6033,
      "##탰": 6034,
      "##育": 6035,
      "##面": 6036,
      "##꺠": 6037,
      "##存": 6038,
      "##餘": 6039,
      "##屬": 6040,
      "##♧": 6041,
      "##ㄸ": 6042,
      "##》": 6043,
      "##営": 6044,
      "##転": 6045,
      "##て": 6046,
      "##つ": 6047,
      "##器": 6048,
      "##装": 6049,
      "##置": 6050,
      "##ど": 6051,
      "##な": 6052,
      "##っ": 6053,
      "##る": 6054,
      "##푱": 6055,
      "##쉰": 6056,
      "##❗": 6057,
      "##굥": 6058,
      "##÷": 6059,
      "##늗": 6060,
      "##": 6061,
      "##罔": 6062,
      "##ー": 6063,
      "##ス": 6064,
      "##ト": 6065,
      "##ラ": 6066,
      "##リ": 6067,
      "##ア": 6068,
      "##댠": 6069,
      "##툭": 6070,
      "##귿": 6071,
      "##칡": 6072,
      "##🏻": 6073,
      "##度": 6074,
      "##强": 6075,
      "##閣": 6076,
      "##動": 6077,
      "##뮨": 6078,
      "##羅": 6079,
      "##間": 6080,
      "##⃕": 6081,
      "##벧": 6082,
      "##볶": 6083,
      "##非": 6084,
      "##얗": 6085,
      "##ㅍ": 6086,
      "##ㅖ": 6087,
      "##숟": 6088,
      "##⑶": 6089,
      "##쯩": 6090,
      "##➡": 6091,
      "##둿": 6092,
      "##種": 6093,
      "##⇔": 6094,
      "##豁": 6095,
      "##⇒": 6096,
      "##캬": 6097,
      "##푝": 6098,
      "##뭅": 6099,
      "##햤": 6100,
      "##걍": 6101,
      "##쑵": 6102,
      "##句": 6103,
      "##랎": 6104,
      "##폇": 6105,
      "##빔": 6106,
      "##〮": 6107,
      "##롓": 6108,
      "##ô": 6109,
      "##́": 6110,
      "##흭": 6111,
      "##規": 6112,
      "##範": 6113,
      "##者": 6114,
      "##衫": 6115,
      "##섹": 6116,
      "##息": 6117,
      "##陰": 6118,
      "##늙": 6119,
      "##넙": 6120,
      "##角": 6121,
      "##殺": 6122,
      "##牛": 6123,
      "##刊": 6124,
      "##튭": 6125,
      "##▪": 6126,
      "##븍": 6127,
      "##앏": 6128,
      "##쎼": 6129,
      "##辰": 6130,
      "##亂": 6131,
      "##離": 6132,
      "##∴": 6133,
      "##も": 6134,
      "##く": 6135,
      "##い": 6136,
      "##셩": 6137,
      "##理": 6138,
      "##쯧": 6139,
      "##知": 6140,
      "##如": 6141,
      "##福": 6142,
      "##縛": 6143,
      "##性": 6144,
      "##캅": 6145,
      "##덱": 6146,
      "##ㅗ": 6147,
      "##뉩": 6148,
      "##얐": 6149,
      "##텀": 6150,
      "##킷": 6151,
      "##꾁": 6152,
      "##꿉": 6153,
      "##핤": 6154,
      "##姓": 6155,
      "##而": 6156,
      "##햏": 6157,
      "##볔": 6158,
      "##膏": 6159,
      "##災": 6160,
      "##넝": 6161,
      "##븡": 6162,
      "##👎": 6163,
      "##펨": 6164,
      "##氏": 6165,
      "##쐐": 6166,
      "##촐": 6167,
      "##짏": 6168,
      "##โ": 6169,
      "##淫": 6170,
      "##뵤": 6171,
      "##處": 6172,
      "##땃": 6173,
      "##ī": 6174,
      "##ó": 6175,
      "##德": 6176,
      "##퀸": 6177,
      "##샷": 6178,
      "##잼": 6179,
      "##服": 6180,
      "##겡": 6181,
      "##헹": 6182,
      "##횐": 6183,
      "##亂": 6184,
      "##놋": 6185,
      "##햅": 6186,
      "##惠": 6187,
      "##优": 6188,
      "##品": 6189,
      "##哲": 6190,
      "##自": 6191,
      "##統": 6192,
      "##ป": 6193,
      "##ณ": 6194,
      "##펫": 6195,
      "##쩝": 6196,
      "##슺": 6197,
      "##祉": 6198,
      "##핧": 6199,
      "##天": 6200,
      "##恨": 6201,
      "##쌧": 6202,
      "##岡": 6203,
      "##•": 6204,
      "##낚": 6205,
      "##촘": 6206,
      "##方": 6207,
      "##多": 6208,
      "##槿": 6209,
      "##花": 6210,
      "##밷": 6211,
      "##を": 6212,
      "##甘": 6213,
      "##れ": 6214,
      "##ば": 6215,
      "##変": 6216,
      "##こ": 6217,
      "##と": 6218,
      "##に": 6219,
      "##퉤": 6220,
      "##펏": 6221,
      "##팁": 6222,
      "##—": 6223,
      "##햛": 6224,
      "##읜": 6225,
      "##選": 6226,
      "##폄": 6227,
      "##냑": 6228,
      "##ク": 6229,
      "##シ": 6230,
      "##ル": 6231,
      "##꾹": 6232,
      "##밫": 6233,
      "##텬": 6234,
      "##햘": 6235,
      "##︙": 6236,
      "##뷸": 6237,
      "##핣": 6238,
      "##윰": 6239,
      "##쭌": 6240,
      "##듵": 6241,
      "##ન": 6242,
      "##렿": 6243,
      "##넵": 6244,
      "##例": 6245,
      "##됙": 6246,
      "##庫": 6247,
      "##껜": 6248,
      "##랆": 6249,
      "##紋": 6250,
      "##햑": 6251,
      "##슘": 6252,
      "##텋": 6253,
      "##弊": 6254,
      "##算": 6255,
      "##톰": 6256,
      "##刻": 6257,
      "##셌": 6258,
      "##得": 6259,
      "##볻": 6260,
      "##쨍": 6261,
      "##뮴": 6262,
      "##诚": 6263,
      "##쌥": 6264,
      "##域": 6265,
      "##圳": 6266,
      "##듸": 6267,
      "##﻿": 6268,
      "##꾾": 6269,
      "##땋": 6270,
      "##末": 6271,
      "##終": 6272,
      "##톹": 6273,
      "##욥": 6274,
      "##힝": 6275,
      "##캑": 6276,
      "##述": 6277,
      "##〉": 6278,
      "##識": 6279,
      "##펼": 6280,
      "##補": 6281,
      "##ผ": 6282,
      "##꽈": 6283,
      "##』": 6284,
      "##꽉": 6285,
      "##엮": 6286,
      "##杯": 6287,
      "##例": 6288,
      "##④": 6289,
      "##훨": 6290,
      "##力": 6291,
      "##入": 6292,
      "##③": 6293,
      "##築": 6294,
      "##𓅿": 6295,
      "##底": 6296,
      "##굶": 6297,
      "##】": 6298,
      "##숯": 6299,
      "##랼": 6300,
      "##챕": 6301,
      "##엤": 6302,
      "##뜷": 6303,
      "##↠": 6304,
      "##△": 6305,
      "##읏": 6306,
      "##⭐": 6307,
      "##툽": 6308,
      "##홰": 6309,
      "##츄": 6310,
      "##뭣": 6311,
      "##뗴": 6312,
      "##듧": 6313,
      "##탤": 6314,
      "##窮": 6315,
      "##렝": 6316,
      "##졀": 6317,
      "##힉": 6318,
      "##맏": 6319,
      "##轍": 6320,
      "##機": 6321,
      "##費": 6322,
      "##밬": 6323,
      "##₩": 6324,
      "##쒸": 6325,
      "##送": 6326,
      "##委": 6327,
      "##맑": 6328,
      "##갇": 6329,
      "##힗": 6330,
      "##웧": 6331,
      "##ึ": 6332,
      "##ธ": 6333,
      "##룽": 6334,
      "##🤬": 6335,
      "##맣": 6336,
      "##휜": 6337,
      "##엗": 6338,
      "##쥘": 6339,
      "##親": 6340,
      "##빢": 6341,
      "##特": 6342,
      "##風": 6343,
      "##憲": 6344,
      "##첼": 6345,
      "##ポ": 6346,
      "##イ": 6347,
      "##ン": 6348,
      "##切": 6349,
      "##り": 6350,
      "##替": 6351,
      "##え": 6352,
      "##敍": 6353,
      "##댸": 6354,
      "##電": 6355,
      "##풥": 6356,
      "##뿹": 6357,
      "##↓": 6358,
      "##켁": 6359,
      "##⑤": 6360,
      "##몹": 6361,
      "##늬": 6362,
      "##鳳": 6363,
      "##僞": 6364,
      "##稅": 6365,
      "##金": 6366,
      "##龜": 6367,
      "##遇": 6368,
      "##붋": 6369,
      "##슙": 6370,
      "##잦": 6371,
      "##艦": 6372,
      "##平": 6373,
      "##岸": 6374,
      "##折": 6375,
      "##返": 6376,
      "##씪": 6377,
      "##鐘": 6378,
      "##깢": 6379,
      "##農": 6380,
      "##깉": 6381,
      "##故": 6382,
      "##鼎": 6383,
      "##샆": 6384,
      "##實": 6385,
      "##짬": 6386,
      "##😃": 6387,
      "##😉": 6388,
      "##렺": 6389,
      "##☠": 6390,
      "##💻": 6391,
      "##": 6392,
      "##켸": 6393,
      "##⑸": 6394,
      "##ถ": 6395,
      "##팻": 6396,
      "##쳇": 6397,
      "##꿎": 6398,
      "##팥": 6399,
      "##쟐": 6400,
      "##Β": 6401,
      "##쩨": 6402,
      "##깽": 6403,
      "##資": 6404,
      "##퓽": 6405,
      "##◈": 6406,
      "##計": 6407,
      "##헐": 6408,
      "##얇": 6409,
      "##援": 6410,
      "##▣": 6411,
      "##썸": 6412,
      "##쨩": 6413,
      "##判": 6414,
      "##Å": 6415,
      "##낡": 6416,
      "##곙": 6417,
      "##ě": 6418,
      "##튬": 6419,
      "##띔": 6420,
      "##所": 6421,
      "##手": 6422,
      "##運": 6423,
      "##꼰": 6424,
      "##ê": 6425,
      "##̃": 6426,
      "##욘": 6427,
      "##컥": 6428,
      "##졜": 6429,
      "##̀": 6430,
      "##外": 6431,
      "##쟤": 6432,
      "##♣": 6433,
      "##맗": 6434,
      "##톳": 6435,
      "##禍": 6436,
      "##헸": 6437,
      "##켱": 6438,
      "##횔": 6439,
      "##밧": 6440,
      "##則": 6441,
      "##뽁": 6442,
      "##쟝": 6443,
      "##区": 6444,
      "##傷": 6445,
      "##됭": 6446,
      "##뼉": 6447,
      "##궍": 6448,
      "##횃": 6449,
      "##舶": 6450,
      "##츰": 6451,
      "##늡": 6452,
      "##틋": 6453,
      "##띤": 6454,
      "##內": 6455,
      "##꼅": 6456,
      "##告": 6457,
      "##靖": 6458,
      "##꺽": 6459,
      "##樹": 6460,
      "##脂": 6461,
      "##震": 6462,
      "##륻": 6463,
      "##땄": 6464,
      "##冷": 6465,
      "##藏": 6466,
      "##邱": 6467,
      "##讓": 6468,
      "##愧": 6469,
      "##얖": 6470,
      "##踐": 6471,
      "##챗": 6472,
      "##뵨": 6473,
      "##飮": 6474,
      "##̑": 6475,
      "##샬": 6476,
      "##遷": 6477,
      "##辭": 6478,
      "##韻": 6479,
      "##맸": 6480,
      "##禮": 6481,
      "##場": 6482,
      "##윷": 6483,
      "##堂": 6484,
      "##萬": 6485,
      "##乘": 6486,
      "##욌": 6487,
      "##ⓒ": 6488,
      "##羅": 6489,
      "##๋": 6490,
      "##律": 6491,
      "##遡": 6492,
      "##윻": 6493,
      "##丸": 6494,
      "##녾": 6495,
      "##쳔": 6496,
      "##ㅌ": 6497,
      "##懲": 6498,
      "##端": 6499,
      "##晉": 6500,
      "##핌": 6501,
      "##書": 6502,
      "##∵": 6503,
      "##퀼": 6504,
      "##ᄁ": 6505,
      "##需": 6506,
      "##恥": 6507,
      "##據": 6508,
      "##à": 6509,
      "##ì": 6510,
      "##벾": 6511,
      "##龜": 6512,
      "##榮": 6513,
      "##●": 6514,
      "##容": 6515,
      "##떰": 6516,
      "##뜀": 6517,
      "##類": 6518,
      "##ご": 6519,
      "##紹": 6520,
      "##介": 6521,
      "##쌉": 6522,
      "##츈": 6523,
      "##듲": 6524,
      "##紙": 6525,
      "##넸": 6526,
      "##곺": 6527,
      "##왖": 6528,
      "##왛": 6529,
      "##뺨": 6530,
      "##틍": 6531,
      "##浮": 6532,
      "##沈": 6533,
      "##졕": 6534,
      "##뒈": 6535,
      "##읻": 6536,
      "##草": 6537,
      "##六": 6538,
      "##쟌": 6539,
      "##藤": 6540,
      "##是": 6541,
      "##뫀": 6542,
      "##왠": 6543,
      "##귑": 6544,
      "##깼": 6545,
      "##윳": 6546,
      "##꾜": 6547,
      "##뀨": 6548,
      "##눞": 6549,
      "##엏": 6550,
      "##죤": 6551,
      "##껐": 6552,
      "##켐": 6553,
      "##샛": 6554,
      "##′": 6555,
      "##◊": 6556,
      "##녇": 6557,
      "##펄": 6558,
      "##某": 6559,
      "##숖": 6560,
      "##態": 6561,
      "##復": 6562,
      "##讐": 6563,
      "##磁": 6564,
      "##波": 6565,
      "##쪾": 6566,
      "##춥": 6567,
      "##긔": 6568,
      "##롷": 6569,
      "##컈": 6570,
      "##̌": 6571,
      "##❺": 6572,
      "##뺀": 6573,
      "##┐": 6574,
      "##勝": 6575,
      "##〇": 6576,
      "##安": 6577,
      "##寧": 6578,
      "##か": 6579,
      "##搬": 6580,
      "##佳": 6581,
      "##酵": 6582,
      "##캈": 6583,
      "##쬐": 6584,
      "##믑": 6585,
      "##画": 6586,
      "##깤": 6587,
      "##ǎ": 6588,
      "##章": 6589,
      "##裁": 6590,
      "##霹": 6591,
      "##靂": 6592,
      "##얍": 6593,
      "##턔": 6594,
      "##野": 6595,
      "##松": 6596,
      "##뗍": 6597,
      "##윶": 6598,
      "##鮮": 6599,
      "##督": 6600,
      "##根": 6601,
      "##씍": 6602,
      "##慕": 6603,
      "##碑": 6604,
      "##놉": 6605,
      "##퍽": 6606,
      "##洲": 6607,
      "##ゅ": 6608,
      "##쉿": 6609,
      "##追": 6610,
      "##퇘": 6611,
      "##μ": 6612,
      "##뫂": 6613,
      "##닯": 6614,
      "##챔": 6615,
      "##胎": 6616,
      "##音": 6617,
      "##😰": 6618,
      "##볐": 6619,
      "##吏": 6620,
      "##햔": 6621,
      "##哭": 6622,
      "##옌": 6623,
      "##將": 6624,
      "##읋": 6625,
      "##栽": 6626,
      "##샜": 6627,
      "##빱": 6628,
      "##얽": 6629,
      "##ヂ": 6630,
      "##改": 6631,
      "##줏": 6632,
      "##뎁": 6633,
      "##쿰": 6634,
      "##聽": 6635,
      "##몼": 6636,
      "##쮸": 6637,
      "##덞": 6638,
      "##펐": 6639,
      "##長": 6640,
      "##壽": 6641,
      "##땟": 6642,
      "##ㅃ": 6643,
      "##뎠": 6644,
      "##◉": 6645,
      "##윧": 6646,
      "##🐖": 6647,
      "##렜": 6648,
      "##첟": 6649,
      "##읗": 6650,
      "##協": 6651,
      "##調": 6652,
      "##뗳": 6653,
      "##솬": 6654,
      "##é": 6655,
      "##롸": 6656,
      "##吟": 6657,
      "##눙": 6658,
      "##活": 6659,
      "##콱": 6660,
      "##⑴": 6661,
      "##薰": 6662,
      "##華": 6663,
      "##⑷": 6664,
      "##望": 6665,
      "##⇥": 6666,
      "##左": 6667,
      "##右": 6668,
      "##界": 6669,
      "##測": 6670,
      "##뵌": 6671,
      "##싑": 6672,
      "##☎": 6673,
      "##젹": 6674,
      "##😁": 6675,
      "##😂": 6676,
      "##🤣": 6677,
      "##😄": 6678,
      "##😅": 6679,
      "##🤩": 6680,
      "##🍍": 6681,
      "##🌄": 6682,
      "##🌃": 6683,
      "##🌌": 6684,
      "##🏗": 6685,
      "##🦀": 6686,
      "##🐈": 6687,
      "##🐒": 6688,
      "##🏓": 6689,
      "##🎾": 6690,
      "##🥅": 6691,
      "##귈": 6692,
      "##蔽": 6693,
      "##삲": 6694,
      "##쉘": 6695,
      "##療": 6696,
      "##酬": 6697,
      "##價": 6698,
      "##귬": 6699,
      "##폡": 6700,
      "##껬": 6701,
      "##明": 6702,
      "##札": 6703,
      "##믓": 6704,
      "##듼": 6705,
      "##犬": 6706,
      "##聞": 6707,
      "##逸": 6708,
      "##꿏": 6709,
      "##破": 6710,
      "##솝": 6711,
      "##敎": 6712,
      "##렐": 6713,
      "##몃": 6714,
      "##딷": 6715,
      "##樂": 6716,
      "##關": 6717,
      "##닮": 6718,
      "##웤": 6719,
      "##챃": 6720,
      "##꿰": 6721,
      "##땔": 6722,
      "##밮": 6723,
      "##닼": 6724,
      "##촟": 6725,
      "##놯": 6726,
      "##멜": 6727,
      "##ă": 6728,
      "##喆": 6729,
      "##쭝": 6730,
      "##步": 6731,
      "##킁": 6732,
      "##̎": 6733,
      "##삣": 6734,
      "##춯": 6735,
      "##헴": 6736,
      "##겂": 6737,
      "##뺄": 6738,
      "##빂": 6739,
      "##惑": 6740,
      "##겋": 6741,
      "##숮": 6742,
      "##뵜": 6743,
      "##뽚": 6744,
      "##슽": 6745,
      "##텟": 6746,
      "##잌": 6747,
      "##곻": 6748,
      "##邦": 6749,
      "##즨": 6750,
      "##▶": 6751,
      "##싣": 6752,
      "##－": 6753,
      "##": 6754,
      "##⇨": 6755,
      "##職": 6756,
      "##悚": 6757,
      "##中": 6758,
      "##忙": 6759,
      "##렣": 6760,
      "##源": 6761,
      "##開": 6762,
      "##홟": 6763,
      "##術": 6764,
      "##數": 6765,
      "##맬": 6766,
      "##典": 6767,
      "##넒": 6768,
      "##鼻": 6769,
      "##致": 6770,
      "##昊": 6771,
      "##第": 6772,
      "##號": 6773,
      "##쳦": 6774,
      "##멥": 6775,
      "##퉜": 6776,
      "##護": 6777,
      "##갉": 6778,
      "##二": 6779,
      "##↙": 6780,
      "##私": 6781,
      "##ā": 6782,
      "##쉉": 6783,
      "##욷": 6784,
      "##鄕": 6785,
      "##城": 6786,
      "##爵": 6787,
      "##備": 6788,
      "##袋": 6789,
      "##▼": 6790,
      "##쫍": 6791,
      "##딋": 6792,
      "##딲": 6793,
      "##뿝": 6794,
      "##嫁": 6795,
      "##쏜": 6796,
      "##뉼": 6797,
      "##꺾": 6798,
      "##靑": 6799,
      "##襟": 6800,
      "##錄": 6801,
      "##弟": 6802,
      "##묜": 6803,
      "##뛴": 6804,
      "##뱍": 6805,
      "##띁": 6806,
      "##핼": 6807,
      "##メ": 6808,
      "##カ": 6809,
      "##쎙": 6810,
      "##嚴": 6811,
      "##請": 6812,
      "##互": 6813,
      "##氣": 6814,
      "##今": 6815,
      "##記": 6816,
      "##等": 6817,
      "##벋": 6818,
      "##뗐": 6819,
      "##훗": 6820,
      "##샙": 6821,
      "##챤": 6822,
      "##쏨": 6823,
      "##境": 6824,
      "##別": 6825,
      "##箱": 6826,
      "##삥": 6827,
      "##꿘": 6828,
      "##🐕": 6829,
      "##匪": 6830,
      "##命": 6831,
      "##쥣": 6832,
      "##童": 6833,
      "##不": 6834,
      "##男": 6835,
      "##낵": 6836,
      "##멏": 6837,
      "##😏": 6838,
      "##霜": 6839,
      "##꾀": 6840,
      "##뮙": 6841,
      "##染": 6842,
      "##黑": 6843,
      "##홥": 6844,
      "##": 6845,
      "##퍈": 6846,
      "##랃": 6847,
      "##英": 6848,
      "##矣": 6849,
      "##衛": 6850,
      "##隊": 6851,
      "##前": 6852,
      "##駅": 6853,
      "##ㅄ": 6854,
      "##碍": 6855,
      "##代": 6856,
      "##긑": 6857,
      "##왑": 6858,
      "##킳": 6859,
      "##魚": 6860,
      "##굡": 6861,
      "##志": 6862,
      "##鳴": 6863,
      "##鼠": 6864,
      "##匹": 6865,
      "##씰": 6866,
      "##휼": 6867,
      "##線": 6868,
      "##撮": 6869,
      "##考": 6870,
      "##原": 6871,
      "##俊": 6872,
      "##쯕": 6873,
      "##樂": 6874,
      "##門": 6875,
      "##췃": 6876,
      "##탹": 6877,
      "##팰": 6878,
      "##좇": 6879,
      "##넴": 6880,
      "##땁": 6881,
      "##罪": 6882,
      "##놐": 6883,
      "##房": 6884,
      "##핰": 6885,
      "##텻": 6886,
      "##ฟ": 6887,
      "##塚": 6888,
      "##園": 6889,
      "##읶": 6890,
      "##路": 6891,
      "##谷": 6892,
      "##次": 6893,
      "##郞": 6894,
      "##傳": 6895,
      "##￦": 6896,
      "##宜": 6897,
      "##튤": 6898,
      "##짣": 6899,
      "##욮": 6900,
      "##淑": 6901,
      "##給": 6902,
      "##休": 6903,
      "##솣": 6904,
      "##┘": 6905,
      "##죗": 6906,
      "##뎄": 6907,
      "##兒": 6908,
      "##李": 6909,
      "##ญ": 6910,
      "##津": 6911,
      "##룀": 6912,
      "##⇉": 6913,
      "##젱": 6914,
      "##됴": 6915,
      "##읟": 6916,
      "##未": 6917,
      "##숸": 6918,
      "##봍": 6919,
      "##忍": 6920,
      "##峯": 6921,
      "##앖": 6922,
      "##겎": 6923,
      "##캤": 6924,
      "##首": 6925,
      "##켤": 6926,
      "##쳧": 6927,
      "##섣": 6928,
      "##왱": 6929,
      "##塘": 6930,
      "##グ": 6931,
      "##ド": 6932,
      "##京": 6933,
      "##由": 6934,
      "##뇬": 6935,
      "##級": 6936,
      "##精": 6937,
      "##샅": 6938,
      "##쳥": 6939,
      "##龜": 6940,
      "##藥": 6941,
      "##ú": 6942,
      "##뜹": 6943,
      "##◦": 6944,
      "##申": 6945,
      "##當": 6946,
      "##付": 6947,
      "##碩": 6948,
      "##莞": 6949,
      "##━": 6950,
      "##좡": 6951,
      "##썪": 6952,
      "##컾": 6953,
      "##蹟": 6954,
      "##웜": 6955,
      "##읕": 6956,
      "##뫼": 6957,
      "##炳": 6958,
      "##鋈": 6959,
      "##귓": 6960,
      "##껙": 6961,
      "##乙": 6962,
      "##星": 6963,
      "##샸": 6964,
      "##랔": 6965,
      "##∼": 6966,
      "##盜": 6967,
      "##泉": 6968,
      "##疆": 6969,
      "##土": 6970,
      "##濟": 6971,
      "##名": 6972,
      "##警": 6973,
      "##察": 6974,
      "##課": 6975,
      "##猶": 6976,
      "##쿡": 6977,
      "##빰": 6978,
      "##쵀": 6979,
      "##깞": 6980,
      "##눋": 6981,
      "##셴": 6982,
      "##멑": 6983,
      "##빋": 6984,
      "##뎈": 6985,
      "##💖": 6986,
      "##五": 6987,
      "##仁": 6988,
      "##輛": 6989,
      "##般": 6990,
      "##⑵": 6991,
      "##돐": 6992,
      "##돚": 6993,
      "##묽": 6994,
      "##臨": 6995,
      "##菴": 6996,
      "##派": 6997,
      "##❤": 6998,
      "##💙": 6999,
      "##뤗": 7000,
      "##엧": 7001,
      "##솓": 7002,
      "##蓋": 7003,
      "##갹": 7004,
      "##닸": 7005,
      "##√": 7006,
      "##쑨": 7007,
      "##읫": 7008,
      "##立": 7009,
      "##둰": 7010,
      "##썅": 7011,
      "##쮜": 7012,
      "##쫙": 7013,
      "##雲": 7014,
      "##罰": 7015,
      "##百": 7016,
      "##戒": 7017,
      "##酒": 7018,
      "##粕": 7019,
      "##露": 7020,
      "##잆": 7021,
      "##쾨": 7022,
      "##솎": 7023,
      "##샊": 7024,
      "##空": 7025,
      "##햄": 7026,
      "##옾": 7027,
      "##留": 7028,
      "##潜": 7029,
      "##た": 7030,
      "##탘": 7031,
      "##햭": 7032,
      "##꿧": 7033,
      "##共": 7034,
      "##勇": 7035,
      "##進": 7036,
      "##曲": 7037,
      "##켛": 7038,
      "##怒": 7039,
      "##깄": 7040,
      "##表": 7041,
      "##콴": 7042,
      "##槇": 7043,
      "##格": 7044,
      "##펍": 7045,
      "##á": 7046,
      "##햊": 7047,
      "##じ": 7048,
      "##ナ": 7049,
      "##謝": 7050,
      "##ろ": 7051,
      "##ç": 7052,
      "##班": 7053,
      "##싷": 7054,
      "##芥": 7055,
      "##츕": 7056,
      "##讀": 7057,
      "##옅": 7058,
      "##移": 7059,
      "##肉": 7060,
      "##腐": 7061,
      "##幕": 7062,
      "##愛": 7063,
      "##쨔": 7064,
      "##싡": 7065,
      "##웒": 7066,
      "##浦": 7067,
      "##씅": 7068,
      "##☜": 7069,
      "##빆": 7070,
      "##册": 7071,
      "##쓉": 7072,
      "##헁": 7073,
      "##쎳": 7074,
      "##蘇": 7075,
      "##슉": 7076,
      "##곅": 7077,
      "##떱": 7078,
      "##깓": 7079,
      "##띡": 7080,
      "##맽": 7081,
      "##혓": 7082,
      "##챡": 7083,
      "##僧": 7084,
      "##侶": 7085,
      "##벞": 7086,
      "##勳": 7087,
      "##톄": 7088,
      "##黙": 7089,
      "##約": 7090,
      "##퍙": 7091,
      "##뿍": 7092,
      "##乃": 7093,
      "##짂": 7094,
      "##廣": 7095,
      "##寺": 7096,
      "##잽": 7097,
      "##飾": 7098,
      "##塵": 7099,
      "##樽": 7100,
      "##昇": 7101,
      "##์": 7102,
      "##녈": 7103,
      "##證": 7104,
      "##兩": 7105,
      "##院": 7106,
      "##邑": 7107,
      "##凰": 7108,
      "##쇳": 7109,
      "##칀": 7110,
      "##윘": 7111,
      "##니다": 7112,
      "##습니다": 7113,
      "##으로": 7114,
      "##에서": 7115,
      "##하고": 7116,
      "##하는": 7117,
      "##입니다": 7118,
      "국민": 7119,
      "##..": 7120,
      "##들이": 7121,
      "##다고": 7122,
      "##--": 7123,
      "##합니다": 7124,
      "있는": 7125,
      "##다는": 7126,
      "##지만": 7127,
      "##니까": 7128,
      "##하여": 7129,
      "생각": 7130,
      "대한": 7131,
      "##에게": 7132,
      "##세요": 7133,
      "사람": 7134,
      "##는데": 7135,
      "##이라": 7136,
      "##들은": 7137,
      "20": 7138,
      "우리": 7139,
      "있습니다": 7140,
      "##해서": 7141,
      "##하게": 7142,
      "...": 7143,
      "##통령": 7144,
      "##리고": 7145,
      "##까지": 7146,
      "하는": 7147,
      "아니": 7148,
      "..": 7149,
      "합니다": 7150,
      "지금": 7151,
      "##면서": 7152,
      "##들의": 7153,
      "##라고": 7154,
      "##00": 7155,
      "##적으로": 7156,
      "여성": 7157,
      "##이다": 7158,
      "##----": 7159,
      "대통령": 7160,
      "##!!": 7161,
      "##먼지": 7162,
      "정부": 7163,
      "##세먼지": 7164,
      "하고": 7165,
      "##민국": 7166,
      "##하지": 7167,
      "대한민국": 7168,
      "이런": 7169,
      "미세먼지": 7170,
      "##으면": 7171,
      "##들을": 7172,
      "##적인": 7173,
      "문제": 7174,
      "나라": 7175,
      "##었습니다": 7176,
      "201": 7177,
      "##대로": 7178,
      "저는": 7179,
      "##주세요": 7180,
      "##라는": 7181,
      "너무": 7182,
      "그리고": 7183,
      "국가": 7184,
      "그런": 7185,
      "##다면": 7186,
      "아이": 7187,
      "##부터": 7188,
      "##해야": 7189,
      "##렇게": 7190,
      "##에는": 7191,
      "##이고": 7192,
      "만들": 7193,
      "##이나": 7194,
      "청원": 7195,
      "한국": 7196,
      "##하면": 7197,
      "##==": 7198,
      "피해": 7199,
      "##**": 7200,
      "북한": 7201,
      "##나라": 7202,
      "경찰": 7203,
      "중국": 7204,
      "그러": 7205,
      "없는": 7206,
      "##도록": 7207,
      "##기를": 7208,
      "사건": 7209,
      "##에도": 7210,
      "##무원": 7211,
      "##사를": 7212,
      "모든": 7213,
      "것이": 7214,
      "##재인": 7215,
      "##되는": 7216,
      "##어서": 7217,
      "##만원": 7218,
      "문재인": 7219,
      "많은": 7220,
      "##문에": 7221,
      "##들에게": 7222,
      "정말": 7223,
      "##되어": 7224,
      "제가": 7225,
      "##자가": 7226,
      "아닌": 7227,
      "현재": 7228,
      "10": 7229,
      "##하기": 7230,
      "이유": 7231,
      "있다": 7232,
      "사회": 7233,
      "##립니다": 7234,
      "필요": 7235,
      "다른": 7236,
      "##하였": 7237,
      "위해": 7238,
      "같은": 7239,
      "##있는": 7240,
      "##지고": 7241,
      "##--------": 7242,
      "##라도": 7243,
      "이상": 7244,
      "하지": 7245,
      "##겠습니다": 7246,
      "저희": 7247,
      "아무": 7248,
      "하지만": 7249,
      "##네요": 7250,
      "것입니다": 7251,
      "##한다": 7252,
      "다시": 7253,
      "국회": 7254,
      "생각합니다": 7255,
      "##지는": 7256,
      "정책": 7257,
      "없습니다": 7258,
      "##리는": 7259,
      "들어": 7260,
      "##리를": 7261,
      "경제": 7262,
      "그래": 7263,
      "##가요": 7264,
      "상황": 7265,
      "미국": 7266,
      "##시간": 7267,
      "세금": 7268,
      "사실": 7269,
      "##주시": 7270,
      "많이": 7271,
      "해결": 7272,
      "내용": 7273,
      "우리나라": 7274,
      "##으며": 7275,
      "제발": 7276,
      "서울": 7277,
      "##인데": 7278,
      "이렇게": 7279,
      "##보다": 7280,
      "##랍니다": 7281,
      "학생": 7282,
      "##기에": 7283,
      "또한": 7284,
      "##까요": 7285,
      "##나요": 7286,
      "##어야": 7287,
      "해야": 7288,
      "경우": 7289,
      "##이라고": 7290,
      "##들도": 7291,
      "모르": 7292,
      "것은": 7293,
      "##에서는": 7294,
      "##것이": 7295,
      "##처럼": 7296,
      "##의원": 7297,
      "사용": 7298,
      "입니다": 7299,
      "##습니까": 7300,
      "##하며": 7301,
      "모두": 7302,
      "##인이": 7303,
      "##십시": 7304,
      "어떻": 7305,
      "학교": 7306,
      "않는": 7307,
      "교육": 7308,
      "일반": 7309,
      "??": 7310,
      "이제": 7311,
      "##거나": 7312,
      "##가는": 7313,
      "정치": 7314,
      "##하시": 7315,
      "##사가": 7316,
      "##자는": 7317,
      "시간": 7318,
      "##이라는": 7319,
      "여러": 7320,
      "##사람": 7321,
      "때문에": 7322,
      "대통령님": 7323,
      "자신": 7324,
      "하나": 7325,
      "어떻게": 7326,
      "처벌": 7327,
      "한다": 7328,
      "불법": 7329,
      "##지도": 7330,
      "##려고": 7331,
      "관련": 7332,
      "아니라": 7333,
      "자유": 7334,
      "지원": 7335,
      "하였": 7336,
      "계속": 7337,
      "바랍니다": 7338,
      "만들어": 7339,
      "##아야": 7340,
      "##주의": 7341,
      "범죄": 7342,
      "부탁": 7343,
      "그런데": 7344,
      "공무원": 7345,
      "않고": 7346,
      "##학교": 7347,
      "것을": 7348,
      "것이다": 7349,
      "##되고": 7350,
      "##없이": 7351,
      "##지를": 7352,
      "알고": 7353,
      "##기업": 7354,
      "##했습니다": 7355,
      "위한": 7356,
      "##됩니다": 7357,
      "##하다": 7358,
      "##====": 7359,
      "있을": 7360,
      "잘못": 7361,
      "##!!!!": 7362,
      "##드립니다": 7363,
      "되는": 7364,
      "개인": 7365,
      "아닙": 7366,
      "##기가": 7367,
      "국민의": 7368,
      "##자를": 7369,
      "##없는": 7370,
      "하루": 7371,
      "##할수": 7372,
      "일본": 7373,
      "수사": 7374,
      "##장을": 7375,
      "##인지": 7376,
      "##지않": 7377,
      "얼마": 7378,
      "민주": 7379,
      "##아서": 7380,
      "##것도": 7381,
      "##았습니다": 7382,
      "대해": 7383,
      "남성": 7384,
      "##금을": 7385,
      "환경": 7386,
      "##했다": 7387,
      "##이트": 7388,
      "이러": 7389,
      "제대로": 7390,
      "##있습니다": 7391,
      "##같은": 7392,
      "보고": 7393,
      "조사": 7394,
      "##하세요": 7395,
      "관리": 7396,
      "헌법": 7397,
      "##파트": 7398,
      "##들과": 7399,
      "##원을": 7400,
      "##는지": 7401,
      "**": 7402,
      "이용": 7403,
      "##시고": 7404,
      "가능": 7405,
      "##이상": 7406,
      "그래서": 7407,
      "##리가": 7408,
      "##동산": 7409,
      "##다가": 7410,
      "100": 7411,
      "##기도": 7412,
      "##정부": 7413,
      "##사는": 7414,
      "국회의원": 7415,
      "책임": 7416,
      "##으나": 7417,
      "정도": 7418,
      "현실": 7419,
      "마음": 7420,
      "##것은": 7421,
      "있었": 7422,
      "있고": 7423,
      "청와": 7424,
      "하여": 7425,
      "##아가": 7426,
      "이해": 7427,
      "바로": 7428,
      "부동산": 7429,
      "청와대": 7430,
      "그냥": 7431,
      "##어나": 7432,
      "사람이": 7433,
      "힘들": 7434,
      "##정을": 7435,
      "없이": 7436,
      "발생": 7437,
      "##으니": 7438,
      "전화": 7439,
      "되어": 7440,
      "##이라도": 7441,
      "30": 7442,
      "정신": 7443,
      "없다": 7444,
      "##해주": 7445,
      "##하면서": 7446,
      "##시키": 7447,
      "##상을": 7448,
      "그렇게": 7449,
      "안녕": 7450,
      "어떤": 7451,
      "일부": 7452,
      "가족": 7453,
      "사업": 7454,
      "여자": 7455,
      "19": 7456,
      "12": 7457,
      "##기관": 7458,
      "확인": 7459,
      "##가족": 7460,
      "검찰": 7461,
      "##지요": 7462,
      "근로": 7463,
      "##기는": 7464,
      "이게": 7465,
      "***": 7466,
      "이번": 7467,
      "이미": 7468,
      "##공무원": 7469,
      "물론": 7470,
      "나오": 7471,
      "지역": 7472,
      "가장": 7473,
      "##것을": 7474,
      "11": 7475,
      "따라": 7476,
      "##지가": 7477,
      "##입니까": 7478,
      "해서": 7479,
      "감사": 7480,
      "인간": 7481,
      "##자의": 7482,
      "있는데": 7483,
      "근무": 7484,
      "##장이": 7485,
      "##해도": 7486,
      "일을": 7487,
      "자기": 7488,
      "##동안": 7489,
      "하면": 7490,
      "##__": 7491,
      "ht": 7492,
      "아직": 7493,
      "누구": 7494,
      "그렇": 7495,
      "생리": 7496,
      "아파트": 7497,
      "무슨": 7498,
      "##한테": 7499,
      "##하는데": 7500,
      "방법": 7501,
      "어린": 7502,
      "##력을": 7503,
      "##원이": 7504,
      "##어요": 7505,
      "해당": 7506,
      "##권을": 7507,
      "그러나": 7508,
      "노동": 7509,
      "안전": 7510,
      "운영": 7511,
      "않습니다": 7512,
      "##가지": 7513,
      "되었": 7514,
      "##tp": 7515,
      "서민": 7516,
      "말이": 7517,
      "##시는": 7518,
      "억울": 7519,
      "회사": 7520,
      "받고": 7521,
      "아닙니다": 7522,
      "##----------------": 7523,
      "##정도": 7524,
      "##부분": 7525,
      "##대통령": 7526,
      "있도록": 7527,
      "진행": 7528,
      "##어도": 7529,
      "##되었": 7530,
      "지난": 7531,
      "부모": 7532,
      "차량": 7533,
      "요즘": 7534,
      "같습니다": 7535,
      "##한다고": 7536,
      "한번": 7537,
      "##것입니다": 7538,
      "##행정": 7539,
      "청년": 7540,
      "##연금": 7541,
      "문제가": 7542,
      "http": 7543,
      "어려": 7544,
      "대책": 7545,
      "국민이": 7546,
      "국민들이": 7547,
      "##십시오": 7548,
      "계약": 7549,
      "없고": 7550,
      "사고": 7551,
      "2018": 7552,
      "##....": 7553,
      "좋은": 7554,
      "부탁드립니다": 7555,
      "##시켜": 7556,
      "라고": 7557,
      "시작": 7558,
      "요구": 7559,
      "18": 7560,
      "본인": 7561,
      "##하라": 7562,
      "같이": 7563,
      "어느": 7564,
      "##개월": 7565,
      "위해서": 7566,
      "사람들이": 7567,
      "##학생": 7568,
      "중요": 7569,
      "2019": 7570,
      "있다고": 7571,
      "한다고": 7572,
      "세계": 7573,
      "##정은": 7574,
      "##께서": 7575,
      "지급": 7576,
      "##대를": 7577,
      "남자": 7578,
      "신고": 7579,
      "##수가": 7580,
      "심각": 7581,
      "일자": 7582,
      "받아": 7583,
      "##해주세요": 7584,
      "했습니다": 7585,
      "##~~": 7586,
      "통해": 7587,
      "##제를": 7588,
      "진짜": 7589,
      "답변": 7590,
      "않은": 7591,
      "무엇": 7592,
      "건강": 7593,
      "때문": 7594,
      "어디": 7595,
      "않을": 7596,
      "##대한": 7597,
      "것으로": 7598,
      "결과": 7599,
      "생활": 7600,
      "차단": 7601,
      "병원": 7602,
      "설치": 7603,
      "언론": 7604,
      "보호": 7605,
      "##에서도": 7606,
      "##??": 7607,
      "방송": 7608,
      "##사의": 7609,
      "증거": 7610,
      "##위원": 7611,
      "이러한": 7612,
      "뉴스": 7613,
      "##이는": 7614,
      "##가족부": 7615,
      "당시": 7616,
      "못하고": 7617,
      "하는데": 7618,
      "##자로": 7619,
      "##이지": 7620,
      "돈을": 7621,
      "##제로": 7622,
      "직접": 7623,
      "##이며": 7624,
      "않았": 7625,
      "업무": 7626,
      "인해": 7627,
      "안녕하세요": 7628,
      "있다는": 7629,
      "인정": 7630,
      "당연": 7631,
      "글을": 7632,
      "됩니다": 7633,
      "담당": 7634,
      "보내": 7635,
      "거짓": 7636,
      "##재판": 7637,
      "##의를": 7638,
      "라는": 7639,
      "##전용": 7640,
      "의무": 7641,
      "##보고": 7642,
      "....": 7643,
      "조금": 7644,
      "제도": 7645,
      "일이": 7646,
      "이야": 7647,
      "요청": 7648,
      "없어": 7649,
      "##전에": 7650,
      "##더니": 7651,
      "보면": 7652,
      "##구요": 7653,
      "살아": 7654,
      "전혀": 7655,
      "유튜": 7656,
      "반대": 7657,
      "고통": 7658,
      "##생활": 7659,
      "대표": 7660,
      "오늘": 7661,
      "당신": 7662,
      "행정": 7663,
      "##서를": 7664,
      "직원": 7665,
      "이루": 7666,
      "##군요": 7667,
      "주시": 7668,
      "인터": 7669,
      "##하다고": 7670,
      "##이가": 7671,
      "여성가족부": 7672,
      "##국민": 7673,
      "다음": 7674,
      "##시다": 7675,
      "기업": 7676,
      "강력": 7677,
      "미래": 7678,
      "200": 7679,
      "해주": 7680,
      "도와": 7681,
      "##스크": 7682,
      "외국": 7683,
      "##상이": 7684,
      "언제": 7685,
      "또는": 7686,
      "국민들": 7687,
      "피해자": 7688,
      "고소": 7689,
      "되었습니다": 7690,
      "가지고": 7691,
      "함께": 7692,
      "##화를": 7693,
      "얼마나": 7694,
      "정권": 7695,
      "청소": 7696,
      "되고": 7697,
      "그럼": 7698,
      "##력이": 7699,
      "국민을": 7700,
      "살고": 7701,
      "##하겠": 7702,
      "말씀": 7703,
      "부분": 7704,
      "##인가": 7705,
      "대부분": 7706,
      "##겁니다": 7707,
      "가해": 7708,
      "시행": 7709,
      "##성을": 7710,
      "상태": 7711,
      "!!": 7712,
      "의해": 7713,
      "이후": 7714,
      "여성전용": 7715,
      "##하였습니다": 7716,
      "##되었습니다": 7717,
      "당장": 7718,
      "##십시요": 7719,
      "그만": 7720,
      "주장": 7721,
      "대해서": 7722,
      "결국": 7723,
      "##때문에": 7724,
      "주세요": 7725,
      "##정이": 7726,
      "행위": 7727,
      "아니고": 7728,
      "없애": 7729,
      "##놓고": 7730,
      "##사건": 7731,
      "15": 7732,
      "##성이": 7733,
      "일반행정": 7734,
      "##한다는": 7735,
      "누가": 7736,
      "할수": 7737,
      "국내": 7738,
      "##교육": 7739,
      "재판": 7740,
      "수도": 7741,
      "##당한": 7742,
      "시민": 7743,
      "기준": 7744,
      "장애": 7745,
      "##업을": 7746,
      "##인을": 7747,
      "도움": 7748,
      "여기": 7749,
      "대한민국의": 7750,
      "##아요": 7751,
      "이건": 7752,
      "공기": 7753,
      "폐지": 7754,
      "먼저": 7755,
      "정부가": 7756,
      "##료를": 7757,
      "제1": 7758,
      "##명을": 7759,
      "인터넷": 7760,
      "일반행정공무원": 7761,
      "이를": 7762,
      "주민": 7763,
      "##머니": 7764,
      "게임": 7765,
      "##규직": 7766,
      "##리에": 7767,
      "유튜브": 7768,
      "##려는": 7769,
      "##기로": 7770,
      "##되지": 7771,
      "해주세요": 7772,
      "저의": 7773,
      "정부는": 7774,
      "다니": 7775,
      "해외": 7776,
      "##치를": 7777,
      "기본": 7778,
      "장관": 7779,
      "##동차": 7780,
      "##마다": 7781,
      "개선": 7782,
      "##비를": 7783,
      "##등학교": 7784,
      "밖에": 7785,
      "받을": 7786,
      "##히려": 7787,
      "운전": 7788,
      "공개": 7789,
      "##가고": 7790,
      "1년": 7791,
      "해도": 7792,
      "하면서": 7793,
      "없다고": 7794,
      "50": 7795,
      "오히려": 7796,
      "##겠지만": 7797,
      "존재": 7798,
      "##더군요": 7799,
      "좋겠습니다": 7800,
      "피해를": 7801,
      "되지": 7802,
      "게시": 7803,
      "봅니다": 7804,
      "##보험": 7805,
      "##========": 7806,
      "마스크": 7807,
      "##중에": 7808,
      "김정은": 7809,
      "##더라도": 7810,
      "앞으로": 7811,
      "처음": 7812,
      "##주는": 7813,
      "##명이": 7814,
      "받는": 7815,
      "##체가": 7816,
      "나라가": 7817,
      "최근": 7818,
      "말을": 7819,
      "##인은": 7820,
      "##동을": 7821,
      "##제도": 7822,
      "관계": 7823,
      "##인의": 7824,
      "의견": 7825,
      "!!!": 7826,
      "지나": 7827,
      "보여": 7828,
      "지켜": 7829,
      "##정한": 7830,
      "##장에서": 7831,
      ".....": 7832,
      "신청": 7833,
      "##자에": 7834,
      "이유로": 7835,
      "##대가": 7836,
      "https": 7837,
      "대학": 7838,
      "##장님": 7839,
      "이에": 7840,
      "##십니까": 7841,
      "거의": 7842,
      "불구": 7843,
      "수준": 7844,
      "##겠습니까": 7845,
      "주택": 7846,
      "##으로서": 7847,
      "국민들의": 7848,
      "##자들이": 7849,
      "알려": 7850,
      "##었다": 7851,
      "엄청": 7852,
      "판단": 7853,
      "##범죄": 7854,
      "##일이": 7855,
      "##보니": 7856,
      "대출": 7857,
      "##//": 7858,
      "돌아": 7859,
      "더욱": 7860,
      "사는": 7861,
      "소득": 7862,
      "##주고": 7863,
      "##수사": 7864,
      "##정책": 7865,
      "##대표": 7866,
      "##자들": 7867,
      "://": 7868,
      "과거": 7869,
      "어렵": 7870,
      "##가를": 7871,
      "##원에": 7872,
      "##같이": 7873,
      "##받고": 7874,
      "##일을": 7875,
      "##식을": 7876,
      "불가": 7877,
      "남북": 7878,
      "사기": 7879,
      "##들어": 7880,
      "이루어": 7881,
      "##셔서": 7882,
      "청소년": 7883,
      "하였습니다": 7884,
      "정보": 7885,
      "연락": 7886,
      "##시설": 7887,
      "##되면": 7888,
      "매우": 7889,
      "내가": 7890,
      "으로": 7891,
      "미세먼지가": 7892,
      "적용": 7893,
      "지지": 7894,
      "올라": 7895,
      "전부": 7896,
      "##조건": 7897,
      "##경찰": 7898,
      "어린이": 7899,
      "##문제": 7900,
      "노력": 7901,
      "지방": 7902,
      "건설": 7903,
      "안되는": 7904,
      "판결": 7905,
      "##주택": 7906,
      "처리": 7907,
      "특히": 7908,
      "##된다": 7909,
      "##행위": 7910,
      "기관": 7911,
      "##원의": 7912,
      "많습니다": 7913,
      "생각이": 7914,
      "내용이": 7915,
      "있게": 7916,
      "여러분": 7917,
      "말고": 7918,
      "찾아": 7919,
      "보험": 7920,
      "유치": 7921,
      "것도": 7922,
      "아니면": 7923,
      "완전": 7924,
      "최소": 7925,
      "##조차": 7926,
      "너무나": 7927,
      "2019년": 7928,
      "제2": 7929,
      "##했던": 7930,
      "판매": 7931,
      "제출": 7932,
      "포함": 7933,
      "##대체": 7934,
      "인권": 7935,
      "공공": 7936,
      "아주": 7937,
      "2018년": 7938,
      "공부": 7939,
      "##하니": 7940,
      "최저": 7941,
      "##치는": 7942,
      "우리가": 7943,
      "##스로": 7944,
      "하시": 7945,
      "40": 7946,
      "말도": 7947,
      "무시": 7948,
      "절대": 7949,
      "##밖에": 7950,
      "##사고": 7951,
      "분명": 7952,
      "##식으로": 7953,
      "2017": 7954,
      "##행을": 7955,
      "##물을": 7956,
      "##하나": 7957,
      "전세": 7958,
      "##었고": 7959,
      "불구하고": 7960,
      ",,": 7961,
      "의료": 7962,
      "전쟁": 7963,
      "##로운": 7964,
      "된다": 7965,
      "결정": 7966,
      "재산": 7967,
      "##수있": 7968,
      "하게": 7969,
      "##장에": 7970,
      "발전": 7971,
      "월급": 7972,
      "친일": 7973,
      "##부는": 7974,
      "##당장": 7975,
      "못하는": 7976,
      "비용": 7977,
      "조선": 7978,
      "헌법재판": 7979,
      "##시에": 7980,
      "전문": 7981,
      "필요한": 7982,
      "##장은": 7983,
      "##안을": 7984,
      "못한": 7985,
      "떨어": 7986,
      "조작": 7987,
      "##므로": 7988,
      "##서는": 7989,
      "예산": 7990,
      "하며": 7991,
      "##셨으면": 7992,
      "##려면": 7993,
      "##생님": 7994,
      "도대체": 7995,
      "##심을": 7996,
      "있어": 7997,
      "결혼": 7998,
      "##치고": 7999,
      "##말고": 8000,
      "나라를": 8001,
      "가격": 8002,
      "싶습니다": 8003,
      "서로": 8004,
      "##스럽": 8005,
      "마련": 8006,
      "출산": 8007,
      "넘어": 8008,
      "##스템": 8009,
      "모습": 8010,
      "##도로": 8011,
      "##드는": 8012,
      "자신의": 8013,
      "내려": 8014,
      "정상": 8015,
      "친구": 8016,
      "##드시": 8017,
      "25": 8018,
      "##보면": 8019,
      "000": 8020,
      "##스트": 8021,
      "사람들": 8022,
      "##사에": 8023,
      "##관계": 8024,
      "##적이": 8025,
      "일자리": 8026,
      "3월": 8027,
      "독립": 8028,
      "##소득": 8029,
      "민원": 8030,
      "고용": 8031,
      "부족": 8032,
      "##심히": 8033,
      "민족": 8034,
      "전국": 8035,
      "이는": 8036,
      "##위원회": 8037,
      "기술": 8038,
      "유지": 8039,
      "##수를": 8040,
      "co": 8041,
      "##이면": 8042,
      "부담": 8043,
      "사이트": 8044,
      "##근혜": 8045,
      "##겠다": 8046,
      "##저히": 8047,
      "임대": 8048,
      "지키": 8049,
      "##지원": 8050,
      "나가": 8051,
      "의원": 8052,
      "##평등": 8053,
      "##운전": 8054,
      "법을": 8055,
      "위험": 8056,
      "생리대": 8057,
      "우선": 8058,
      "지금당장": 8059,
      "기초": 8060,
      "있지만": 8061,
      "국민들은": 8062,
      "권력": 8063,
      "더이상": 8064,
      "동의": 8065,
      "##니까요": 8066,
      "2년": 8067,
      "과연": 8068,
      "##많은": 8069,
      "##센터": 8070,
      "##사업": 8071,
      "##해주시": 8072,
      "##원에서": 8073,
      "엄마": 8074,
      "한다는": 8075,
      "##기간": 8076,
      "검사": 8077,
      "자동차": 8078,
      "근데": 8079,
      "사법": 8080,
      "##르고": 8081,
      "단체": 8082,
      "에서": 8083,
      "##지역": 8084,
      "##부가": 8085,
      "기다": 8086,
      "##하지만": 8087,
      "##들에": 8088,
      "수정": 8089,
      "##만이": 8090,
      "쓰레": 8091,
      "##우고": 8092,
      "##인가요": 8093,
      "##와서": 8094,
      "대기업": 8095,
      "규제": 8096,
      "##대통령님": 8097,
      "행동": 8098,
      "##호사": 8099,
      "주는": 8100,
      "열심히": 8101,
      "시키": 8102,
      "##ㅋㅋ": 8103,
      "주변": 8104,
      "##업체": 8105,
      "##대에": 8106,
      "##수도": 8107,
      "##0년": 8108,
      "##상에": 8109,
      "##비스": 8110,
      "정부의": 8111,
      "이유는": 8112,
      "이름": 8113,
      "##물의": 8114,
      "기사": 8115,
      "##지로": 8116,
      "성폭": 8117,
      "취업": 8118,
      "##발전": 8119,
      "등을": 8120,
      "##분이": 8121,
      "매일": 8122,
      "받았": 8123,
      "##도를": 8124,
      "국민연금": 8125,
      "잘못된": 8126,
      "##겠다고": 8127,
      "교통": 8128,
      "##id": 8129,
      "아무런": 8130,
      "##아니": 8131,
      "아버": 8132,
      "##____": 8133,
      "##한국": 8134,
      "부터": 8135,
      "추가": 8136,
      "시험": 8137,
      "차별": 8138,
      "##이란": 8139,
      "혜택": 8140,
      "##으면서": 8141,
      "##민주": 8142,
      "##자들은": 8143,
      "##해라": 8144,
      "반드시": 8145,
      "##오는": 8146,
      "힘든": 8147,
      "##관리": 8148,
      "##하자": 8149,
      "##먹고": 8150,
      "이야기": 8151,
      "없다는": 8152,
      "국방": 8153,
      "폭행": 8154,
      "작성": 8155,
      "핵무": 8156,
      "##냐고": 8157,
      "##!!!!!!!!": 8158,
      "##정보": 8159,
      "대하여": 8160,
      "겁니다": 8161,
      "빨리": 8162,
      "등등": 8163,
      "##했고": 8164,
      "올려": 8165,
      "##분들": 8166,
      "중요한": 8167,
      "도로": 8168,
      "##운동": 8169,
      "가정": 8170,
      "만든": 8171,
      "아무리": 8172,
      "##라면": 8173,
      "##기고": 8174,
      "기간": 8175,
      "수가": 8176,
      "거짓말": 8177,
      "##지어": 8178,
      "이제는": 8179,
      "##하시는": 8180,
      "민주당": 8181,
      "선택": 8182,
      "##위해": 8183,
      "##거리": 8184,
      "우리는": 8185,
      "##장의": 8186,
      "##건에": 8187,
      "##정권": 8188,
      "##0만원": 8189,
      "13": 8190,
      "있으며": 8191,
      "투자": 8192,
      "사람들은": 8193,
      "대통령이": 8194,
      "받은": 8195,
      "있어서": 8196,
      "까지": 8197,
      "없을": 8198,
      "아직도": 8199,
      "있었습니다": 8200,
      "되면": 8201,
      "불편": 8202,
      "보다": 8203,
      "연예": 8204,
      "고발": 8205,
      "##생각": 8206,
      ".)": 8207,
      "만약": 8208,
      "박근혜": 8209,
      "##하거나": 8210,
      "##지에": 8211,
      "2월": 8212,
      "##임금": 8213,
      "거래": 8214,
      "14": 8215,
      "선거": 8216,
      "##우는": 8217,
      "강제": 8218,
      "##자에게": 8219,
      "구속": 8220,
      "한반": 8221,
      "##였습니다": 8222,
      "##러운": 8223,
      "##된다고": 8224,
      "금액": 8225,
      "사라": 8226,
      "의사": 8227,
      "사람은": 8228,
      "적폐": 8229,
      "바라": 8230,
      "여가": 8231,
      "##조사": 8232,
      "개발": 8233,
      "위배": 8234,
      "추진": 8235,
      "정책을": 8236,
      "##단체": 8237,
      "당연히": 8238,
      "답답": 8239,
      "##만을": 8240,
      "그대로": 8241,
      "나서": 8242,
      "밝혀": 8243,
      "무조건": 8244,
      "받지": 8245,
      "##심이": 8246,
      "평화": 8247,
      "젊은": 8248,
      "돈이": 8249,
      "##차를": 8250,
      "##을때": 8251,
      "##개발": 8252,
      "아이를": 8253,
      "자격": 8254,
      "##하던": 8255,
      "먹고": 8256,
      "보상": 8257,
      "담배": 8258,
      "인한": 8259,
      "중소": 8260,
      "##실을": 8261,
      "복지": 8262,
      "##익을": 8263,
      "행복": 8264,
      "##er": 8265,
      "##하도록": 8266,
      "국제": 8267,
      "##하라고": 8268,
      "##명의": 8269,
      "이어": 8270,
      "##다니": 8271,
      "##음에도": 8272,
      "스스로": 8273,
      "##국가": 8274,
      "##겠다는": 8275,
      "##읍니다": 8276,
      "##함을": 8277,
      "지금까지": 8278,
      "통일": 8279,
      "##부를": 8280,
      "##문을": 8281,
      "어려운": 8282,
      "진술": 8283,
      "기회": 8284,
      "저도": 8285,
      "좋아": 8286,
      "각종": 8287,
      "안되": 8288,
      "동안": 8289,
      "표현": 8290,
      "직장": 8291,
      "보는": 8292,
      "##내고": 8293,
      "##아이": 8294,
      "##건지": 8295,
      "청원을": 8296,
      "감사합니다": 8297,
      "자녀": 8298,
      "택시": 8299,
      "민주주의": 8300,
      "##식이": 8301,
      "##져야": 8302,
      "##ew": 8303,
      "##리지": 8304,
      "보장": 8305,
      "정의": 8306,
      "##음을": 8307,
      "임금": 8308,
      "##지지": 8309,
      "나이": 8310,
      "남녀": 8311,
      "얘기": 8312,
      "더불": 8313,
      "##상으로": 8314,
      "북한이": 8315,
      "헌법재판소": 8316,
      "금융": 8317,
      "전환": 8318,
      "하기": 8319,
      "21": 8320,
      "하늘": 8321,
      "???": 8322,
      "쓰레기": 8323,
      "생각을": 8324,
      "적극": 8325,
      "##법을": 8326,
      "세금을": 8327,
      "위반": 8328,
      "이해가": 8329,
      "##ti": 8330,
      "##이라면": 8331,
      "심각한": 8332,
      "마약": 8333,
      "##인들": 8334,
      "선생님": 8335,
      "##으로써": 8336,
      "희망": 8337,
      "16": 8338,
      "##듯이": 8339,
      "시켜": 8340,
      "정당": 8341,
      "##체를": 8342,
      "등의": 8343,
      "신경": 8344,
      "침해": 8345,
      "정부에서": 8346,
      "가진": 8347,
      "일어나": 8348,
      "심지어": 8349,
      "##원은": 8350,
      "아닙니까": 8351,
      "사건을": 8352,
      "정확": 8353,
      "##합니까": 8354,
      "##--------------------------------": 8355,
      "##한국당": 8356,
      "항공": 8357,
      "##년간": 8358,
      "치료": 8359,
      "효과": 8360,
      "##가서": 8361,
      "국민은": 8362,
      "사실을": 8363,
      "채용": 8364,
      "##수당": 8365,
      "##사회": 8366,
      "있어야": 8367,
      "##사로": 8368,
      "##되어야": 8369,
      "공정": 8370,
      "확실": 8371,
      "비핵": 8372,
      "포기": 8373,
      "했다": 8374,
      "##고를": 8375,
      "지금은": 8376,
      "##만큼": 8377,
      "##소송": 8378,
      "저를": 8379,
      "##차별": 8380,
      "없었": 8381,
      "가입": 8382,
      "##이스": 8383,
      "주고": 8384,
      "알아": 8385,
      "항상": 8386,
      "##화가": 8387,
      "##봅니다": 8388,
      "문제는": 8389,
      "그때": 8390,
      "지속": 8391,
      "##공자": 8392,
      "않아": 8393,
      "##소를": 8394,
      "##건가요": 8395,
      "제1항": 8396,
      "나는": 8397,
      "충분": 8398,
      "자유한국당": 8399,
      "버스": 8400,
      "전기": 8401,
      "제안": 8402,
      "군대": 8403,
      "##보는": 8404,
      "##받는": 8405,
      "##소리": 8406,
      "관한": 8407,
      "법률": 8408,
      "사이": 8409,
      "인구": 8410,
      "탄핵": 8411,
      "부정": 8412,
      "com": 8413,
      "더불어": 8414,
      "제한": 8415,
      "가지": 8416,
      "##내용": 8417,
      "가는": 8418,
      "집단": 8419,
      "청원합니다": 8420,
      "##수의": 8421,
      "##과의": 8422,
      "##했다고": 8423,
      "단속": 8424,
      "걱정": 8425,
      "##나라는": 8426,
      "##세를": 8427,
      "##등을": 8428,
      "상황이": 8429,
      "모르는": 8430,
      "##글을": 8431,
      "바뀌": 8432,
      "##하신": 8433,
      "##영업": 8434,
      "발언": 8435,
      "금지": 8436,
      "##일에": 8437,
      "비정": 8438,
      "##셨습니다": 8439,
      "안됩니다": 8440,
      "##수준": 8441,
      "이유가": 8442,
      "어찌": 8443,
      "생각해": 8444,
      "##하였고": 8445,
      "시스템": 8446,
      "영향": 8447,
      "요건에": 8448,
      "참고": 8449,
      "##청정": 8450,
      "##있고": 8451,
      "우리의": 8452,
      "스트": 8453,
      "프로": 8454,
      "##리면": 8455,
      "어머니": 8456,
      "직업": 8457,
      "##서에": 8458,
      "##계약": 8459,
      "부모님": 8460,
      "위배되어": 8461,
      "참여": 8462,
      "청구": 8463,
      "##정에": 8464,
      "조치": 8465,
      "......": 8466,
      "사랑": 8467,
      "관리자에": 8468,
      "수술": 8469,
      "문제를": 8470,
      "2016": 8471,
      "17": 8472,
      "##한다면": 8473,
      "장애인": 8474,
      "사람을": 8475,
      "1월": 8476,
      "##년이": 8477,
      "##00만원": 8478,
      "게시물의": 8479,
      "아닌가요": 8480,
      "##노동": 8481,
      "수정되었습니다": 8482,
      "위협": 8483,
      "공급": 8484,
      "보도": 8485,
      "아래": 8486,
      "##했는데": 8487,
      "한반도": 8488,
      "##부모": 8489,
      "있으면": 8490,
      "재심": 8491,
      "버닝": 8492,
      "역사": 8493,
      "강화": 8494,
      "인사": 8495,
      "작년": 8496,
      "했는데": 8497,
      "##르게": 8498,
      "),": 8499,
      "교활": 8500,
      "역시": 8501,
      "북한의": 8502,
      "부산": 8503,
      "음주": 8504,
      "최고": 8505,
      "어린이집": 8506,
      "##르는": 8507,
      "##****": 8508,
      "진정": 8509,
      "고객": 8510,
      "조합": 8511,
      "점점": 8512,
      "갑질": 8513,
      "노인": 8514,
      "작은": 8515,
      "##자기": 8516,
      "##경제": 8517,
      "##렸습니다": 8518,
      "##관이": 8519,
      "##시키고": 8520,
      "~~": 8521,
      "산업": 8522,
      "일어": 8523,
      "사과": 8524,
      "##나고": 8525,
      "##집니다": 8526,
      "최소한": 8527,
      "마지": 8528,
      "사무": 8529,
      "졸업": 8530,
      "가져": 8531,
      "돌려": 8532,
      "한달": 8533,
      "시간이": 8534,
      "쉽게": 8535,
      "자살": 8536,
      "생산": 8537,
      "수십": 8538,
      "시설": 8539,
      "물어": 8540,
      "정규직": 8541,
      "수많은": 8542,
      "허위": 8543,
      "자연": 8544,
      "##하는게": 8545,
      "나온": 8546,
      "못하게": 8547,
      "의미": 8548,
      "저에게": 8549,
      "건물": 8550,
      "이전": 8551,
      "##부의": 8552,
      "보유": 8553,
      "사망": 8554,
      "##무를": 8555,
      "유치원": 8556,
      "부디": 8557,
      "있는지": 8558,
      "##하다는": 8559,
      "##을수": 8560,
      "버닝썬": 8561,
      "단순": 8562,
      "등록": 8563,
      "아닐": 8564,
      "안보": 8565,
      "##10": 8566,
      "처벌을": 8567,
      "##신청": 8568,
      "나라에서": 8569,
      "공기청정": 8570,
      "중소기업": 8571,
      "지하": 8572,
      "특별": 8573,
      "##겁니까": 8574,
      "##듭니다": 8575,
      "분양": 8576,
      "##헌아": 8577,
      "그게": 8578,
      "계획": 8579,
      "미세먼지를": 8580,
      "제공": 8581,
      "##명박": 8582,
      "##임을": 8583,
      "형사": 8584,
      "##계를": 8585,
      "가짜": 8586,
      "거주": 8587,
      "대구": 8588,
      "##사이트": 8589,
      "소리": 8590,
      "제재": 8591,
      "##점을": 8592,
      "아니다": 8593,
      "오래": 8594,
      "하니": 8595,
      "##일보": 8596,
      "##생을": 8597,
      "##없고": 8598,
      "주차": 8599,
      "스트레": 8600,
      "아침": 8601,
      "페미": 8602,
      "강남": 8603,
      "서류": 8604,
      "마지막": 8605,
      "노후": 8606,
      "##분들이": 8607,
      "국토": 8608,
      "##이기": 8609,
      "##겠죠": 8610,
      "##공단": 8611,
      "지금도": 8612,
      "트럼": 8613,
      "##5년": 8614,
      "받아야": 8615,
      "위하여": 8616,
      "준비": 8617,
      "##회사": 8618,
      "2017년": 8619,
      "##왔습니다": 8620,
      "##부에": 8621,
      "가서": 8622,
      "그동안": 8623,
      "의혹": 8624,
      "##나는": 8625,
      "때문입니다": 8626,
      "혹은": 8627,
      "퇴직": 8628,
      "##가가": 8629,
      "##학년": 8630,
      "따라서": 8631,
      "트럼프": 8632,
      "##매매": 8633,
      "그래도": 8634,
      "서비스": 8635,
      "있지": 8636,
      "##위를": 8637,
      "##금이": 8638,
      "만들고": 8639,
      "저지": 8640,
      "아이들이": 8641,
      "제외": 8642,
      "##하십니까": 8643,
      "이라는": 8644,
      "##복지": 8645,
      "비판": 8646,
      "##었는데": 8647,
      "설명": 8648,
      "인상": 8649,
      "이명박": 8650,
      "혼자": 8651,
      "사진": 8652,
      "줄어": 8653,
      "##방송": 8654,
      "##번째": 8655,
      "불가능": 8656,
      "##환경": 8657,
      "실업": 8658,
      "입학": 8659,
      "국가가": 8660,
      "않으면": 8661,
      "인천": 8662,
      "지금의": 8663,
      "문화": 8664,
      "교활한": 8665,
      "대체": 8666,
      "국정": 8667,
      "궁금": 8668,
      "바꾸": 8669,
      "바람": 8670,
      "보니": 8671,
      "싶은": 8672,
      "##000": 8673,
      "법이": 8674,
      "올립니다": 8675,
      "촛불": 8676,
      "##자들의": 8677,
      "살인": 8678,
      "갑자기": 8679,
      "광주": 8680,
      "따른": 8681,
      "폐기": 8682,
      "상대": 8683,
      "외교": 8684,
      "이라고": 8685,
      "##하겠습니다": 8686,
      "성범죄": 8687,
      "도시": 8688,
      "실시": 8689,
      "없어서": 8690,
      "크게": 8691,
      "대법": 8692,
      "은행": 8693,
      "후보": 8694,
      "##이지만": 8695,
      "민사": 8696,
      "불안": 8697,
      "않았습니다": 8698,
      "3년": 8699,
      "나라의": 8700,
      "경유": 8701,
      "분들이": 8702,
      "전에": 8703,
      "방문": 8704,
      "##도가": 8705,
      "##자와": 8706,
      "바꿔": 8707,
      "비리": 8708,
      "개정": 8709,
      "어떠": 8710,
      "전화를": 8711,
      "##할때": 8712,
      "내용을": 8713,
      "책임을": 8714,
      "공산": 8715,
      "##달라고": 8716,
      "국민청": 8717,
      "##에요": 8718,
      "##품을": 8719,
      "개혁": 8720,
      "군인": 8721,
      "##부장": 8722,
      "외국인": 8723,
      "시절": 8724,
      "##on": 8725,
      "##적이고": 8726,
      "읽어": 8727,
      "발표": 8728,
      "여론": 8729,
      "##들고": 8730,
      "##려야": 8731,
      "기존": 8732,
      "##거래": 8733,
      "된다고": 8734,
      "올해": 8735,
      "이것이": 8736,
      "차라": 8737,
      "##는게": 8738,
      "##마디": 8739,
      "사항": 8740,
      "자식": 8741,
      "##자인": 8742,
      "24": 8743,
      "기억": 8744,
      "느끼": 8745,
      "##이니": 8746,
      "##들만": 8747,
      "급여": 8748,
      "만드는": 8749,
      "세상": 8750,
      "지적": 8751,
      "합의": 8752,
      "##아주세요": 8753,
      "##병원": 8754,
      "소비": 8755,
      "투기": 8756,
      "##한데": 8757,
      "사회적": 8758,
      "##든지": 8759,
      ".\"": 8760,
      "검열": 8761,
      "##자연": 8762,
      "비정규직": 8763,
      "손해": 8764,
      "동일": 8765,
      "육군": 8766,
      "집값": 8767,
      "듣고": 8768,
      "##에만": 8769,
      "국가의": 8770,
      "북한은": 8771,
      "##구를": 8772,
      "그러면": 8773,
      "새로운": 8774,
      "의한": 8775,
      "가까": 8776,
      "그리": 8777,
      "분노": 8778,
      "솔직": 8779,
      "판사": 8780,
      "협박": 8781,
      "도움이": 8782,
      "권리": 8783,
      "벌금": 8784,
      "자영업": 8785,
      "##말종": 8786,
      "##비용": 8787,
      "##하지않": 8788,
      "미세먼지로": 8789,
      "##대는": 8790,
      "마찬": 8791,
      "##상태": 8792,
      "차라리": 8793,
      "소송": 8794,
      "쓰고": 8795,
      "##내는": 8796,
      "나오는": 8797,
      "민간": 8798,
      "우리나라는": 8799,
      "사건이": 8800,
      "활동": 8801,
      "10년": 8802,
      "남편": 8803,
      "얼굴": 8804,
      "원하는": 8805,
      "받았습니다": 8806,
      "국민들에게": 8807,
      "2차": 8808,
      "못할": 8809,
      "변경": 8810,
      "업체": 8811,
      "##었던": 8812,
      "정도로": 8813,
      "성인": 8814,
      "그걸": 8815,
      "##조치": 8816,
      "##했다는": 8817,
      "구입": 8818,
      "높은": 8819,
      "##대의": 8820,
      "비핵화": 8821,
      "과정": 8822,
      "벌어": 8823,
      "조건": 8824,
      "##제가": 8825,
      "남한": 8826,
      "##있는데": 8827,
      "##ews": 8828,
      "##공사": 8829,
      "운동": 8830,
      "이것은": 8831,
      "##있다": 8832,
      "보수": 8833,
      "스트레스": 8834,
      "이하": 8835,
      "주시기": 8836,
      "건축": 8837,
      "##조합": 8838,
      "##20": 8839,
      "##하시고": 8840,
      "구매": 8841,
      "##시면": 8842,
      "평등": 8843,
      "피고": 8844,
      "해주시": 8845,
      "근거": 8846,
      "어쩔": 8847,
      "전체": 8848,
      "구조": 8849,
      "그저": 8850,
      "##리게": 8851,
      "화가": 8852,
      "##단을": 8853,
      "저희는": 8854,
      "##교통": 8855,
      "엄청난": 8856,
      "도입": 8857,
      "부당": 8858,
      "##생이": 8859,
      "시간을": 8860,
      "사례": 8861,
      "##나서": 8862,
      "##차량": 8863,
      "국민들을": 8864,
      "최저임금": 8865,
      "검토": 8866,
      "##처리": 8867,
      "##ㅡㅡ": 8868,
      "약속": 8869,
      "증가": 8870,
      "현대": 8871,
      "##번호": 8872,
      "국민에게": 8873,
      "상승": 8874,
      "##워서": 8875,
      "##잖아요": 8876,
      "##~~~~": 8877,
      "의심": 8878,
      "##구나": 8879,
      "##30": 8880,
      "##================": 8881,
      "목숨": 8882,
      "이거": 8883,
      "##들로": 8884,
      "대책을": 8885,
      "맞는": 8886,
      "##이를": 8887,
      "대형": 8888,
      "운행": 8889,
      "변호사": 8890,
      "##장으로": 8891,
      "거부": 8892,
      "없었습니다": 8893,
      "##2년": 8894,
      "##드리": 8895,
      "도와주세요": 8896,
      "댓글": 8897,
      "연금": 8898,
      "일하는": 8899,
      "있으": 8900,
      "처럼": 8901,
      "##지면": 8902,
      "##없습니다": 8903,
      "60": 8904,
      "자료": 8905,
      "##물이": 8906,
      "마찬가지": 8907,
      "들었습니다": 8908,
      "##그램": 8909,
      "아닌가": 8910,
      "존경": 8911,
      "살아가": 8912,
      "조사를": 8913,
      "##프로": 8914,
      "아니라고": 8915,
      "필요합니다": 8916,
      "고등학교": 8917,
      "나와": 8918,
      "##하려고": 8919,
      "##감을": 8920,
      "대기": 8921,
      "많아": 8922,
      "시청": 8923,
      "중앙": 8924,
      "##장과": 8925,
      "##관련": 8926,
      "안타": 8927,
      "있다면": 8928,
      "공사": 8929,
      "돌아가": 8930,
      "않게": 8931,
      "합니까": 8932,
      "##분들은": 8933,
      "12월": 8934,
      "평가": 8935,
      "##등학생": 8936,
      "대한민국을": 8937,
      "변속": 8938,
      "믿고": 8939,
      "##하여야": 8940,
      "자신이": 8941,
      "##줘야": 8942,
      "성매매": 8943,
      "합법": 8944,
      "##수는": 8945,
      "##십니다": 8946,
      "누군": 8947,
      "##출산": 8948,
      "고려": 8949,
      "##보호": 8950,
      "##비가": 8951,
      ",,,": 8952,
      "##던지": 8953,
      "##시험": 8954,
      "##없다": 8955,
      "##느냐": 8956,
      "20대": 8957,
      "경찰이": 8958,
      "모른": 8959,
      "##자들을": 8960,
      "고위": 8961,
      "중단": 8962,
      "서울시": 8963,
      "법무": 8964,
      "장자연": 8965,
      "제기": 8966,
      "조직": 8967,
      "신뢰": 8968,
      "##학의": 8969,
      "정치인": 8970,
      "북핵": 8971,
      "##하는지": 8972,
      "##한번": 8973,
      "##당이": 8974,
      "억울한": 8975,
      "경기도": 8976,
      "공동": 8977,
      "80": 8978,
      "것이고": 8979,
      "##이유": 8980,
      "##민족": 8981,
      "아무것도": 8982,
      "교사": 8983,
      "말로": 8984,
      "무기": 8985,
      "알게": 8986,
      "삼성": 8987,
      "주식": 8988,
      "##40": 8989,
      "70": 8990,
      "기록": 8991,
      "##증을": 8992,
      "장기": 8993,
      "강력한": 8994,
      "##도시": 8995,
      "살기": 8996,
      "##만으로": 8997,
      "소유": 8998,
      "##분을": 8999,
      "대한민국은": 9000,
      "들어가": 9001,
      "힘들어": 9002,
      "명예": 9003,
      "부과": 9004,
      "철저히": 9005,
      "대한민국이": 9006,
      "경우가": 9007,
      "법원": 9008,
      "시급": 9009,
      "##11": 9010,
      "민사소송": 9011,
      "성폭행": 9012,
      "두고": 9013,
      "통신": 9014,
      "국가에서": 9015,
      "어떠한": 9016,
      "가고": 9017,
      "상담": 9018,
      "내고": 9019,
      "##이버": 9020,
      "경험": 9021,
      "무고": 9022,
      "않도록": 9023,
      "##셔야": 9024,
      "드러": 9025,
      "만큼": 9026,
      "##선을": 9027,
      "생각됩니다": 9028,
      "아이들": 9029,
      "승리": 9030,
      "문재인대통령님": 9031,
      "대응": 9032,
      "영업": 9033,
      "출근": 9034,
      "통과": 9035,
      "##상황": 9036,
      "##사항": 9037,
      "23": 9038,
      "이것": 9039,
      "인간말종": 9040,
      "나경": 9041,
      "소음": 9042,
      "언급": 9043,
      "자리": 9044,
      "##하려": 9045,
      "근본": 9046,
      "보건": 9047,
      "집에": 9048,
      "##려서": 9049,
      "##위에": 9050,
      "초등학교": 9051,
      "##기준": 9052,
      "##치가": 9053,
      "드립니다": 9054,
      "##여서": 9055,
      "쓰는": 9056,
      "##심으로": 9057,
      "그들의": 9058,
      "##율이": 9059,
      "##릅니다": 9060,
      "간곡": 9061,
      "마시고": 9062,
      "미국의": 9063,
      "##간에": 9064,
      "나쁜": 9065,
      "신용": 9066,
      "인하여": 9067,
      "##을까요": 9068,
      "##부로": 9069,
      "##르면": 9070,
      "##........": 9071,
      "구글": 9072,
      "##더라": 9073,
      "솔직히": 9074,
      "그러니": 9075,
      "연예인": 9076,
      "그것도": 9077,
      "일제": 9078,
      "고민": 9079,
      "가슴": 9080,
      "군사": 9081,
      "세월": 9082,
      "연구": 9083,
      "##의로": 9084,
      "우리나라의": 9085,
      "항공기": 9086,
      "목적": 9087,
      "수사를": 9088,
      "한마디": 9089,
      "사유": 9090,
      "##시아": 9091,
      "무능": 9092,
      "아프": 9093,
      "장난": 9094,
      "##안에": 9095,
      "##억원": 9096,
      "중국에": 9097,
      "납부": 9098,
      "##in": 9099,
      "##관은": 9100,
      "있으니": 9101,
      "##부에서": 9102,
      "생각하고": 9103,
      "세금으로": 9104,
      "비례": 9105,
      "태극": 9106,
      "대변": 9107,
      "##는데도": 9108,
      "역할": 9109,
      "자주": 9110,
      "##결과": 9111,
      "##시가": 9112,
      "##수록": 9113,
      "##ww": 9114,
      "저와": 9115,
      "언제까지": 9116,
      "늘어": 9117,
      "아는": 9118,
      "직무": 9119,
      "##점이": 9120,
      "##4년": 9121,
      "경쟁": 9122,
      "대신": 9123,
      "##지게": 9124,
      "##이터": 9125,
      "##구청": 9126,
      "##갑니다": 9127,
      "친일파": 9128,
      "##조선": 9129,
      "놓고": 9130,
      "소통": 9131,
      "듭니다": 9132,
      "본인이": 9133,
      "이동": 9134,
      "특정": 9135,
      "##것이다": 9136,
      "www": 9137,
      "기대": 9138,
      "분들": 9139,
      "이나라": 9140,
      "##라서": 9141,
      "피해자가": 9142,
      "전자": 9143,
      "##요일": 9144,
      "##중인": 9145,
      "모르겠습니다": 9146,
      "안내": 9147,
      "news": 9148,
      "아빠": 9149,
      "희생": 9150,
      "##장애": 9151,
      "##경찰서": 9152,
      "방치": 9153,
      "실행": 9154,
      "여기서": 9155,
      "무서": 9156,
      "##안이": 9157,
      "새벽": 9158,
      "제3": 9159,
      "##시킨": 9160,
      "##좋은": 9161,
      "하는지": 9162,
      "무너": 9163,
      "##사람이": 9164,
      "##받은": 9165,
      "일으": 9166,
      "##산을": 9167,
      "##금으로": 9168,
      "##물질": 9169,
      "가능한": 9170,
      "풀어": 9171,
      "##에선": 9172,
      "##는다": 9173,
      "##기사": 9174,
      "아버지": 9175,
      "대전": 9176,
      "갖고": 9177,
      "반복": 9178,
      "이사": 9179,
      "##하루": 9180,
      "규정": 9181,
      "실제": 9182,
      "정작": 9183,
      "충분히": 9184,
      "되어야": 9185,
      "##50": 9186,
      "삭제": 9187,
      "아예": 9188,
      "고통을": 9189,
      "##이자": 9190,
      "##하는거": 9191,
      "변속기": 9192,
      "28": 9193,
      "감시": 9194,
      "온갖": 9195,
      "피의": 9196,
      "때문이다": 9197,
      "훈련": 9198,
      "아이가": 9199,
      "주십시오": 9200,
      "##어가": 9201,
      "##텐데": 9202,
      "나타": 9203,
      "허용": 9204,
      "##an": 9205,
      "##차례": 9206,
      "그에": 9207,
      "의문": 9208,
      "##간의": 9209,
      "##으로부터": 9210,
      "간절": 9211,
      "불과": 9212,
      "일단": 9213,
      "##관의": 9214,
      "##시키는": 9215,
      "괴롭": 9216,
      "자한": 9217,
      "##오고": 9218,
      "##곳에": 9219,
      "##된다는": 9220,
      "모두가": 9221,
      "깨끗": 9222,
      "평생": 9223,
      "##천만원": 9224,
      "##계가": 9225,
      "당사": 9226,
      "대통령은": 9227,
      "22": 9228,
      "5년": 9229,
      "들고": 9230,
      "이익": 9231,
      "##받아": 9232,
      "##리한": 9233,
      "수입": 9234,
      "작업": 9235,
      "##수있는": 9236,
      "그럴": 9237,
      "달라": 9238,
      "있던": 9239,
      "지정": 9240,
      "##것같": 9241,
      "##로서": 9242,
      "##두고": 9243,
      "간곡히": 9244,
      "김학의": 9245,
      "방해": 9246,
      "입장": 9247,
      "제시": 9248,
      "화장": 9249,
      "##영상": 9250,
      "##마저": 9251,
      "##뉴스": 9252,
      "않는다": 9253,
      "북미": 9254,
      "심해": 9255,
      "일은": 9256,
      "있기": 9257,
      "자체가": 9258,
      "자체": 9259,
      "공장": 9260,
      "네이버": 9261,
      "철저": 9262,
      "##회담": 9263,
      "##중한": 9264,
      "힘들게": 9265,
      "항의": 9266,
      "##봐야": 9267,
      "했던": 9268,
      "##ea": 9269,
      "이상한": 9270,
      "학생들이": 9271,
      "상당": 9272,
      "취소": 9273,
      "것에": 9274,
      "동네": 9275,
      "##여러": 9276,
      "##급이": 9277,
      "도움을": 9278,
      "실제로": 9279,
      "투표": 9280,
      "##져서": 9281,
      "것이며": 9282,
      "사태": 9283,
      "저감": 9284,
      "하세요": 9285,
      "##에게는": 9286,
      "상황을": 9287,
      "미국이": 9288,
      "모르고": 9289,
      "박정": 9290,
      "있습니까": 9291,
      "##지방": 9292,
      "##나마": 9293,
      ".(": 9294,
      "26": 9295,
      "다름": 9296,
      "영상": 9297,
      "일방": 9298,
      "##라인": 9299,
      "저출산": 9300,
      "##도는": 9301,
      "##했지만": 9302,
      "아이들을": 9303,
      "관심": 9304,
      "말하는": 9305,
      "절대로": 9306,
      "뭐가": 9307,
      "엔진": 9308,
      "접수": 9309,
      "상황에서": 9310,
      "동물": 9311,
      "선출": 9312,
      "에게": 9313,
      "##미세먼지": 9314,
      "대다": 9315,
      "알바": 9316,
      "인공": 9317,
      "지도": 9318,
      "힘을": 9319,
      "답변을": 9320,
      "마땅": 9321,
      "잡아": 9322,
      "##거라": 9323,
      "##다운": 9324,
      "##TV": 9325,
      "27": 9326,
      "제일": 9327,
      "##직원": 9328,
      "##님이": 9329,
      "##옵니다": 9330,
      "다양": 9331,
      "어른": 9332,
      "##카드": 9333,
      "방법을": 9334,
      "나왔": 9335,
      "낭비": 9336,
      "명백": 9337,
      "아마": 9338,
      "촉구": 9339,
      "##먹는": 9340,
      "##급을": 9341,
      "그래야": 9342,
      "2016년": 9343,
      "아동": 9344,
      "확대": 9345,
      "##진국": 9346,
      "##자료": 9347,
      "##어를": 9348,
      "##롭게": 9349,
      "상관": 9350,
      "올바": 9351,
      "우려": 9352,
      "##경우": 9353,
      "대우": 9354,
      "이번에": 9355,
      "중에": 9356,
      "통화": 9357,
      "##주십시오": 9358,
      "##으로는": 9359,
      "통보": 9360,
      "##지않고": 9361,
      "빠른": 9362,
      "진정한": 9363,
      "##리기": 9364,
      "##걸로": 9365,
      "독재": 9366,
      "실패": 9367,
      "힘이": 9368,
      "##졌습니다": 9369,
      "##***": 9370,
      "자유를": 9371,
      "이젠": 9372,
      "##????": 9373,
      "공수": 9374,
      "호소": 9375,
      "##법이": 9376,
      "검색": 9377,
      "말입니다": 9378,
      "안하고": 9379,
      "집을": 9380,
      "공매": 9381,
      "노조": 9382,
      "##자고": 9383,
      "##산업": 9384,
      "간호": 9385,
      "비슷": 9386,
      "주지": 9387,
      "##하라는": 9388,
      "##기록": 9389,
      "방법이": 9390,
      "당하고": 9391,
      "수행": 9392,
      "하다": 9393,
      "##이로": 9394,
      "똑같은": 9395,
      "비롯": 9396,
      "징역": 9397,
      "한다면": 9398,
      "##것으로": 9399,
      "##히고": 9400,
      "##수로": 9401,
      "겁니까": 9402,
      "공약": 9403,
      "소방": 9404,
      "진실": 9405,
      "의견을": 9406,
      "박정희": 9407,
      "예비": 9408,
      "##자리": 9409,
      "199": 9410,
      "민사소송법": 9411,
      "자세": 9412,
      "제주": 9413,
      "평균": 9414,
      "부패": 9415,
      "실질": 9416,
      "저런": 9417,
      "##해보": 9418,
      "##아닌": 9419,
      "##24": 9420,
      "평범": 9421,
      "현장": 9422,
      "확보": 9423,
      "##자도": 9424,
      "##때문": 9425,
      "##두순": 9426,
      "어쩌": 9427,
      "중학교": 9428,
      "토지": 9429,
      "생각하는": 9430,
      "na": 9431,
      "결론": 9432,
      "노무": 9433,
      "##3년": 9434,
      "강요": 9435,
      "조두순": 9436,
      "주거": 9437,
      "##준영": 9438,
      "kr": 9439,
      "와서": 9440,
      "##가능": 9441,
      "하루하루": 9442,
      "자한당": 9443,
      "지시": 9444,
      "##BS": 9445,
      "중국발": 9446,
      "사실이": 9447,
      "너무나도": 9448,
      "비례대표": 9449,
      "권리를": 9450,
      "대북": 9451,
      "마치": 9452,
      "생기": 9453,
      "##만한": 9454,
      "대상": 9455,
      "여성이": 9456,
      "저희가": 9457,
      "따로": 9458,
      "만나": 9459,
      "생명": 9460,
      "##직을": 9461,
      "##아파트": 9462,
      "##소에": 9463,
      "##ver": 9464,
      "단지": 9465,
      "비밀": 9466,
      "재벌": 9467,
      "##금액": 9468,
      "##하고자": 9469,
      "공수처": 9470,
      "나머": 9471,
      "예를": 9472,
      "상황입니다": 9473,
      "교육을": 9474,
      "않으": 9475,
      "혜택을": 9476,
      "가만": 9477,
      "내놓": 9478,
      "대중": 9479,
      "막아": 9480,
      "하였고": 9481,
      "##사무": 9482,
      "범죄를": 9483,
      "공공기관": 9484,
      "부끄": 9485,
      "##회를": 9486,
      "##전히": 9487,
      "##제한": 9488,
      "##답니다": 9489,
      "넘는": 9490,
      "인지": 9491,
      "죽어": 9492,
      "동시에": 9493,
      "카드": 9494,
      "##도에": 9495,
      "##시민": 9496,
      "##겠지요": 9497,
      "##했을": 9498,
      "것인지": 9499,
      "유착": 9500,
      "후손": 9501,
      "##자체": 9502,
      "음주운전": 9503,
      "페미니": 9504,
      "성평등": 9505,
      "오후": 9506,
      "훨씬": 9507,
      "##실에": 9508,
      "미국은": 9509,
      "1인": 9510,
      "불러": 9511,
      "특수": 9512,
      "##던가": 9513,
      "안녕하십니까": 9514,
      "##았다": 9515,
      "주시길": 9516,
      "마스크를": 9517,
      "##소음": 9518,
      "##구가": 9519,
      "##오염": 9520,
      "미세먼지에": 9521,
      "##이스북": 9522,
      "->": 9523,
      "매년": 9524,
      "입주": 9525,
      "타고": 9526,
      "##하려는": 9527,
      "00": 9528,
      "살아야": 9529,
      "삶을": 9530,
      "활용": 9531,
      "##해를": 9532,
      "##검사": 9533,
      "가해자": 9534,
      "안정": 9535,
      "한심": 9536,
      "##는가": 9537,
      "##이었습니다": 9538,
      "##일까요": 9539,
      "##격을": 9540,
      "##는거": 9541,
      "##주기": 9542,
      "##구역": 9543,
      "##권이": 9544,
      "나경원": 9545,
      "##움을": 9546,
      "##께서는": 9547,
      "##________": 9548,
      "위치": 9549,
      "##일로": 9550,
      "##납니다": 9551,
      "##란다": 9552,
      "누구나": 9553,
      "보이": 9554,
      "정준영": 9555,
      "하셨": 9556,
      "민원을": 9557,
      "##력발전": 9558,
      "##금지": 9559,
      "대해서는": 9560,
      "##해야합니다": 9561,
      "당한": 9562,
      "보육": 9563,
      "이혼": 9564,
      "##원으로": 9565,
      "자신들의": 9566,
      "강제로": 9567,
      "교수": 9568,
      "나중에": 9569,
      "##전을": 9570,
      "##차가": 9571,
      "안된다고": 9572,
      "양성": 9573,
      "행태": 9574,
      "##만에": 9575,
      "##제는": 9576,
      "사람의": 9577,
      "머리": 9578,
      "페이스북": 9579,
      "중국이": 9580,
      "지원을": 9581,
      "##하에": 9582,
      "##서가": 9583,
      "대통령의": 9584,
      "이야기를": 9585,
      "가게": 9586,
      "것이라고": 9587,
      "서해": 9588,
      "##정으로": 9589,
      "개인의": 9590,
      "****": 9591,
      "대학교": 9592,
      "세워": 9593,
      "오염": 9594,
      "해보": 9595,
      "임시": 9596,
      "##활동": 9597,
      "##신고": 9598,
      "##또한": 9599,
      "##더라구요": 9600,
      "빨갱": 9601,
      "집중": 9602,
      "한국의": 9603,
      "논란": 9604,
      "두려": 9605,
      "미친": 9606,
      "바보": 9607,
      "사장님": 9608,
      "원인": 9609,
      "원칙": 9610,
      "훼손": 9611,
      "##주지": 9612,
      "##랜드": 9613,
      "##en": 9614,
      "모욕": 9615,
      "소속": 9616,
      "제거": 9617,
      "##가로": 9618,
      "##드폰": 9619,
      "##했으면": 9620,
      "##규모": 9621,
      "모르겠": 9622,
      "수도권": 9623,
      "국립": 9624,
      "학부모": 9625,
      "##하나요": 9626,
      "##끼리": 9627,
      "##or": 9628,
      "하는게": 9629,
      "한국당": 9630,
      "기타": 9631,
      "북한에": 9632,
      "##부장관": 9633,
      "등에": 9634,
      "받게": 9635,
      "움직": 9636,
      "이슈": 9637,
      "##보다는": 9638,
      "구성": 9639,
      "보기": 9640,
      "##실에서": 9641,
      "대한민국에서": 9642,
      "관련된": 9643,
      "그렇다면": 9644,
      "##스럽게": 9645,
      "31": 9646,
      "늘어나": 9647,
      "##재를": 9648,
      "##위가": 9649,
      "##까지도": 9650,
      "필요가": 9651,
      "4대": 9652,
      "상식": 9653,
      "아들": 9654,
      "한사람": 9655,
      "##하셨": 9656,
      "미래를": 9657,
      "법적": 9658,
      "비교": 9659,
      "사람들을": 9660,
      "중국에서": 9661,
      "##생활을": 9662,
      "광고": 9663,
      "그들이": 9664,
      "아내": 9665,
      "폭력": 9666,
      "##로는": 9667,
      "않습니까": 9668,
      "하시는": 9669,
      "보조": 9670,
      "성공": 9671,
      "휴대": 9672,
      "##회의": 9673,
      "##일은": 9674,
      "조차": 9675,
      "##인들이": 9676,
      "##기술": 9677,
      "##마트": 9678,
      "##달라": 9679,
      "모습을": 9680,
      "문자": 9681,
      "뿐만": 9682,
      "##유공자": 9683,
      "##명한": 9684,
      "사실상": 9685,
      "대비": 9686,
      "받으": 9687,
      "왔습니다": 9688,
      "다르": 9689,
      "똑같이": 9690,
      "파악": 9691,
      "##근로": 9692,
      "##하기도": 9693,
      "무엇을": 9694,
      "몰아": 9695,
      "방향": 9696,
      "시장": 9697,
      "주십시요": 9698,
      "했고": 9699,
      "##인해": 9700,
      "정책이": 9701,
      "분명히": 9702,
      "공직": 9703,
      "나올": 9704,
      "변호": 9705,
      "##18": 9706,
      "거기": 9707,
      "고구": 9708,
      "보입니다": 9709,
      "적어도": 9710,
      "##로부터": 9711,
      "##은행": 9712,
      "##국의": 9713,
      "##신을": 9714,
      "##민주당": 9715,
      "구청": 9716,
      "그것이": 9717,
      "링크": 9718,
      "사람도": 9719,
      "전문가": 9720,
      "관광": 9721,
      "능력": 9722,
      "사형": 9723,
      "살려": 9724,
      "인권을": 9725,
      "해체": 9726,
      "##과는": 9727,
      "##성화": 9728,
      "##등등": 9729,
      "##건데": 9730,
      "미세먼지는": 9731,
      "빠져": 9732,
      "자꾸": 9733,
      "지구": 9734,
      "사람입니다": 9735,
      "여가부": 9736,
      "남아": 9737,
      "다들": 9738,
      "집행": 9739,
      "##의가": 9740,
      "##벨트": 9741,
      "##아니라": 9742,
      "행위를": 9743,
      "SN": 9744,
      "등으로": 9745,
      "통해서": 9746,
      "핸드폰": 9747,
      "##받지": 9748,
      "##세가": 9749,
      "경찰서": 9750,
      "평범한": 9751,
      "TV": 9752,
      "겨우": 9753,
      "경기": 9754,
      "교복": 9755,
      "끝까지": 9756,
      "하라고": 9757,
      "경남": 9758,
      "사람들의": 9759,
      "기초연금": 9760,
      "6개월": 9761,
      "시대": 9762,
      "연결": 9763,
      "조치를": 9764,
      "사건의": 9765,
      "공유": 9766,
      "그건": 9767,
      "##하네요": 9768,
      "##성에": 9769,
      "국민여러": 9770,
      "그들은": 9771,
      "노출": 9772,
      "미리": 9773,
      "반영": 9774,
      "시점": 9775,
      "##함이": 9776,
      "않을까": 9777,
      "다녀": 9778,
      "반려": 9779,
      "시도": 9780,
      "자랑": 9781,
      "특검": 9782,
      "##자들에게": 9783,
      "##사와": 9784,
      "##있게": 9785,
      "이상의": 9786,
      "위원": 9787,
      "4월": 9788,
      "설립": 9789,
      "##어버": 9790,
      "##es": 9791,
      "##님들": 9792,
      "##증이": 9793,
      "과정에서": 9794,
      "불이": 9795,
      "이와": 9796,
      "##로지": 9797,
      "##두환": 9798,
      "1억": 9799,
      "강간": 9800,
      "물건": 9801,
      "##기만": 9802,
      "##졌다": 9803,
      "##필요": 9804,
      "미군": 9805,
      "반성": 9806,
      "배우": 9807,
      "##지정": 9808,
      "##년을": 9809,
      "##어진": 9810,
      "##나게": 9811,
      "##시절": 9812,
      "##시킬": 9813,
      "##는데요": 9814,
      "있을까요": 9815,
      "달리": 9816,
      "학원": 9817,
      "##라고요": 9818,
      "마음이": 9819,
      "영향을": 9820,
      "가르": 9821,
      "들이": 9822,
      "예상": 9823,
      "일하고": 9824,
      "##급여": 9825,
      "다니는": 9826,
      "법으로": 9827,
      "올리": 9828,
      "줄여": 9829,
      "##고싶": 9830,
      "사람들에게": 9831,
      "노예": 9832,
      "목소": 9833,
      "유일": 9834,
      "힘듭니다": 9835,
      "나라는": 9836,
      "그린": 9837,
      "내용은": 9838,
      "야당": 9839,
      "##tion": 9840,
      "같다": 9841,
      "권한": 9842,
      "저녁": 9843,
      "혹시": 9844,
      "##지말고": 9845,
      "##벌이": 9846,
      "##용이": 9847,
      "##처를": 9848,
      "경제적": 9849,
      "##시간을": 9850,
      "naver": 9851,
      "신문": 9852,
      "이들은": 9853,
      "전두환": 9854,
      "##포츠": 9855,
      "##개의": 9856,
      "국민세": 9857,
      "그나마": 9858,
      "지불": 9859,
      "##지마": 9860,
      "학교에서": 9861,
      "개인정보": 9862,
      "뉴스를": 9863,
      "완전히": 9864,
      "%)": 9865,
      "보통": 9866,
      "비난": 9867,
      "##이든": 9868,
      "##리라": 9869,
      "##청구": 9870,
      "그것을": 9871,
      "내는": 9872,
      "아님": 9873,
      "원래": 9874,
      "##적을": 9875,
      "한국은": 9876,
      "지난해": 9877,
      "선고": 9878,
      "수백": 9879,
      "##해요": 9880,
      "##만명": 9881,
      "##금은": 9882,
      "하나도": 9883,
      "신고를": 9884,
      "##인과": 9885,
      "나라에": 9886,
      "공기청정기": 9887,
      "이라": 9888,
      "여러가지": 9889,
      "되었고": 9890,
      "##기위해": 9891,
      "##스러운": 9892,
      "##등록": 9893,
      "대한민국에": 9894,
      "가야": 9895,
      "도저히": 9896,
      "명확": 9897,
      "오는": 9898,
      "통합": 9899,
      "하던": 9900,
      "홍보": 9901,
      "##대상": 9902,
      "건강보험": 9903,
      "인간말종인": 9904,
      "자본": 9905,
      "##상공": 9906,
      "##신문": 9907,
      "##위로": 9908,
      "##책임": 9909,
      "그렇다고": 9910,
      "대부분의": 9911,
      "목적으로": 9912,
      "세력": 9913,
      "없으면": 9914,
      "##조작": 9915,
      "##전자": 9916,
      "상황에": 9917,
      "경영": 9918,
      "##세력": 9919,
      "##판을": 9920,
      "프로그램": 9921,
      "곳이": 9922,
      "등이": 9923,
      "뿐입니다": 9924,
      "해고": 9925,
      "했지만": 9926,
      "지하철": 9927,
      "감독": 9928,
      "법인": 9929,
      "신분": 9930,
      "행사": 9931,
      "##관을": 9932,
      "당당": 9933,
      "선진국": 9934,
      "적이": 9935,
      "##시대": 9936,
      "##쓰고": 9937,
      "90": 9938,
      "각하": 9939,
      "여전히": 9940,
      "##운데": 9941,
      "##죄로": 9942,
      "고구려": 9943,
      "간단": 9944,
      "또다": 9945,
      "심한": 9946,
      "전달": 9947,
      "##주시고": 9948,
      "공익": 9949,
      "수업": 9950,
      "있나요": 9951,
      "진실을": 9952,
      "최악": 9953,
      "##시로": 9954,
      "##통신": 9955,
      "##말이": 9956,
      "여성의": 9957,
      "##하겠다고": 9958,
      "내부": 9959,
      "##비로": 9960,
      "##바랍니다": 9961,
      "기자": 9962,
      "비싸": 9963,
      "식으로": 9964,
      "유공자": 9965,
      "집에서": 9966,
      "뛰어": 9967,
      "많고": 9968,
      "블랙": 9969,
      "양키": 9970,
      "오로지": 9971,
      "##문화": 9972,
      "제도를": 9973,
      "둘째": 9974,
      "모자": 9975,
      "인식": 9976,
      "있으나": 9977,
      "##거죠": 9978,
      "##나가": 9979,
      "##리며": 9980,
      "이유를": 9981,
      "도둑": 9982,
      "무료": 9983,
      "사립": 9984,
      "일도": 9985,
      "같은데": 9986,
      "##수사령": 9987,
      "상대로": 9988,
      "##자금": 9989,
      "기소": 9990,
      "안되고": 9991,
      "존경하는": 9992,
      "병역": 9993,
      "생겼": 9994,
      "이대로": 9995,
      "일정": 9996,
      "##소에서": 9997,
      "##평가": 9998,
      "대통령을": 9999,
      "300": 10000,
      "미성": 10001,
      "조용": 10002,
      "죽을": 10003,
      "통하여": 10004,
      "퇴근": 10005,
      "##인으로": 10006,
      "##사용": 10007,
      "##트남": 10008,
      "##레이": 10009,
      "않을까요": 10010,
      "말은": 10011,
      "앞에": 10012,
      "##거라고": 10013,
      "##교사": 10014,
      "##출을": 10015,
      "##리아": 10016,
      "위해서는": 10017,
      "따르면": 10018,
      "##만의": 10019,
      "##성과": 10020,
      "##1년": 10021,
      "##명으로": 10022,
      "##까지는": 10023,
      "휴대폰": 10024,
      "된다는": 10025,
      "먹는": 10026,
      "있음": 10027,
      "매연": 10028,
      "생계": 10029,
      "시달": 10030,
      "저질": 10031,
      "##주셔서": 10032,
      "##등의": 10033,
      "##쳐서": 10034,
      "중국의": 10035,
      "의무를": 10036,
      "동원": 10037,
      "##지못": 10038,
      "##주십시요": 10039,
      "##안전": 10040,
      "발견": 10041,
      "절차": 10042,
      "최대": 10043,
      "흡연": 10044,
      "조선일보": 10045,
      "말이다": 10046,
      "안된다": 10047,
      "위에": 10048,
      "이민": 10049,
      "죄를": 10050,
      "하나요": 10051,
      "##인에게": 10052,
      "##대학": 10053,
      "##히는": 10054,
      "##말로": 10055,
      "봐도": 10056,
      "이익을": 10057,
      "재난": 10058,
      "직권": 10059,
      "허가": 10060,
      "수당": 10061,
      "입원": 10062,
      "##처벌": 10063,
      "##하는것": 10064,
      "문제로": 10065,
      "그린벨트": 10066,
      "감소": 10067,
      "기사를": 10068,
      "못해": 10069,
      "못합니다": 10070,
      "실정": 10071,
      "참으로": 10072,
      "##세대": 10073,
      "2015년": 10074,
      "학생들은": 10075,
      "강력하게": 10076,
      "가만히": 10077,
      "높아": 10078,
      "순간": 10079,
      "예전": 10080,
      "통제": 10081,
      "##으니까요": 10082,
      "사회에": 10083,
      "일자리를": 10084,
      "당연한": 10085,
      "정상적인": 10086,
      "것과": 10087,
      "비상": 10088,
      "일입니다": 10089,
      "노무현": 10090,
      "1차": 10091,
      "보이지": 10092,
      "여당": 10093,
      "##합시다": 10094,
      "##지않는": 10095,
      "육아": 10096,
      "##야합니다": 10097,
      "##을까": 10098,
      "##때는": 10099,
      "##버스": 10100,
      "강력히": 10101,
      "미성년": 10102,
      "보면서": 10103,
      "##속에": 10104,
      "우리나라가": 10105,
      "하자": 10106,
      "##유치": 10107,
      "##으신": 10108,
      "문제인": 10109,
      "보내고": 10110,
      "공산주의": 10111,
      "괜찮": 10112,
      "찬성": 10113,
      "##리로": 10114,
      "##씨가": 10115,
      "발급": 10116,
      "분들은": 10117,
      "어제": 10118,
      "초미세먼지": 10119,
      "##았는데": 10120,
      "이행": 10121,
      "입니까": 10122,
      "제작": 10123,
      "##보증": 10124,
      "##씨는": 10125,
      "##주시길": 10126,
      "현실입니다": 10127,
      "##정도로": 10128,
      "29": 10129,
      "아시": 10130,
      "어이가": 10131,
      "이뤄": 10132,
      "지자체": 10133,
      "여성을": 10134,
      "가까운": 10135,
      "신규": 10136,
      "없는데": 10137,
      "적은": 10138,
      "즉시": 10139,
      "다양한": 10140,
      "대선": 10141,
      "베트남": 10142,
      "왜냐": 10143,
      "##조리": 10144,
      "##실이": 10145,
      ".......": 10146,
      "하지않": 10147,
      "사용하는": 10148,
      "학교에": 10149,
      "무시하고": 10150,
      "몇년": 10151,
      "법적으로": 10152,
      "##감이": 10153,
      "##훈련": 10154,
      "가난": 10155,
      "이곳": 10156,
      "##아버": 10157,
      "경찰청": 10158,
      "요청합니다": 10159,
      "##지정재판": 10160,
      "강원": 10161,
      "다만": 10162,
      "분야": 10163,
      "여기에": 10164,
      "##인들은": 10165,
      "##나면": 10166,
      "##시스템": 10167,
      "##ou": 10168,
      "정확한": 10169,
      "대법원": 10170,
      "곳에": 10171,
      "된다면": 10172,
      "보이는": 10173,
      "석탄": 10174,
      "없도록": 10175,
      "해라": 10176,
      "##명은": 10177,
      "##였다": 10178,
      "근로자": 10179,
      "달라고": 10180,
      "말만": 10181,
      "이들이": 10182,
      "했다고": 10183,
      "6월": 10184,
      "7월": 10185,
      "감옥": 10186,
      "관심을": 10187,
      "전면": 10188,
      "제품": 10189,
      "커녕": 10190,
      "##상의": 10191,
      "##가의": 10192,
      "중국과": 10193,
      "비해": 10194,
      "##대책": 10195,
      "##주민": 10196,
      "##디어": 10197,
      "##계획": 10198,
      "나머지": 10199,
      "처분": 10200,
      "태양": 10201,
      "##당시": 10202,
      "##성은": 10203,
      "경찰은": 10204,
      "생리대를": 10205,
      "고작": 10206,
      "눈치": 10207,
      "다를": 10208,
      "대상으로": 10209,
      "면접": 10210,
      "주말": 10211,
      "해소": 10212,
      "##폭력": 10213,
      "있었던": 10214,
      "사고가": 10215,
      "핵무기": 10216,
      "압박": 10217,
      "여자가": 10218,
      "현행": 10219,
      "##8조": 10220,
      "있었고": 10221,
      "35": 10222,
      "낙태": 10223,
      "성장": 10224,
      "외면": 10225,
      "죄송": 10226,
      "편의": 10227,
      "##지의": 10228,
      "##위한": 10229,
      "하였으나": 10230,
      "KT": 10231,
      "과학": 10232,
      "굳이": 10233,
      "긴급": 10234,
      "대화": 10235,
      "실망": 10236,
      "본인의": 10237,
      "업무를": 10238,
      "어쩔수": 10239,
      "올바른": 10240,
      "무단": 10241,
      "수는": 10242,
      "조정": 10243,
      "##사유": 10244,
      "공항": 10245,
      "기재": 10246,
      "내년": 10247,
      "번호": 10248,
      "##아도": 10249,
      "##받을": 10250,
      "##바이": 10251,
      "교육청": 10252,
      "굉장": 10253,
      "나아가": 10254,
      "##이드": 10255,
      "##주차": 10256,
      "##시장": 10257,
      "##심의": 10258,
      "##비는": 10259,
      "사건은": 10260,
      "정보를": 10261,
      "지속적으로": 10262,
      "세월호": 10263,
      "36": 10264,
      "양육": 10265,
      "즉각": 10266,
      "##선거": 10267,
      "##가면": 10268,
      "##었으면": 10269,
      "##피해": 10270,
      "국민청원": 10271,
      "성추": 10272,
      "제조": 10273,
      "##지기": 10274,
      "##진다": 10275,
      "##부탁": 10276,
      "아이돌": 10277,
      "돈으로": 10278,
      "올린": 10279,
      "좌파": 10280,
      "차를": 10281,
      "##판에": 10282,
      "##ㅠㅠ": 10283,
      "필요하다고": 10284,
      "무엇이": 10285,
      "기준으로": 10286,
      "태극기": 10287,
      "그것": 10288,
      "일주": 10289,
      "##국이": 10290,
      "전세계": 10291,
      "더불어민주당": 10292,
      "바라는": 10293,
      "영원": 10294,
      "##주셨으면": 10295,
      "국가를": 10296,
      "해결책": 10297,
      "자기들": 10298,
      "공간": 10299,
      "말아": 10300,
      "왜곡": 10301,
      "##하였으나": 10302,
      "사업을": 10303,
      "간절히": 10304,
      "교체": 10305,
      "기능": 10306,
      "남자가": 10307,
      "대처": 10308,
      "알아서": 10309,
      "전략": 10310,
      "협력": 10311,
      "○○": 10312,
      "건의": 10313,
      "부당한": 10314,
      "빼앗": 10315,
      "생겨": 10316,
      "올리는": 10317,
      "##바로": 10318,
      "생활을": 10319,
      "나아": 10320,
      "살펴": 10321,
      "새로": 10322,
      "입장에서": 10323,
      "제목": 10324,
      "종교": 10325,
      "##신이": 10326,
      "##세로": 10327,
      "한국에": 10328,
      "##가며": 10329,
      "##들입니다": 10330,
      "##구니": 10331,
      "##CTV": 10332,
      "##근무": 10333,
      "반대합니다": 10334,
      "경력": 10335,
      "규모": 10336,
      "노력을": 10337,
      "분열": 10338,
      "연봉": 10339,
      "##부담": 10340,
      "##남용": 10341,
      "정치적": 10342,
      "길을": 10343,
      "악화": 10344,
      "음식": 10345,
      "이래": 10346,
      "초등학생": 10347,
      "##하실": 10348,
      "어렵게": 10349,
      "막고": 10350,
      "매국": 10351,
      "수익": 10352,
      "어떨": 10353,
      "##질을": 10354,
      "##달라는": 10355,
      "##수있게": 10356,
      "것입니까": 10357,
      "방안": 10358,
      "신체": 10359,
      "주요": 10360,
      "횡포": 10361,
      "##공항": 10362,
      "##치지": 10363,
      "##하다가": 10364,
      "500": 10365,
      "본다": 10366,
      "비싼": 10367,
      "생존": 10368,
      "2015": 10369,
      "꿈을": 10370,
      "도박": 10371,
      "##지급": 10372,
      "##었다고": 10373,
      "##노조": 10374,
      "마음에": 10375,
      "5월": 10376,
      "막는": 10377,
      "영어": 10378,
      "자기가": 10379,
      "##었지만": 10380,
      "##됐다": 10381,
      "많은데": 10382,
      "##들에게는": 10383,
      "학생입니다": 10384,
      "11월": 10385,
      "경유차": 10386,
      ".”": 10387,
      "그랬": 10388,
      "없게": 10389,
      "좋을": 10390,
      "최종": 10391,
      "침략": 10392,
      "행동을": 10393,
      "##부와": 10394,
      "##건축": 10395,
      "##길래": 10396,
      "만들어서": 10397,
      "아무도": 10398,
      "일반행정공무원들이": 10399,
      "안타깝": 10400,
      "느껴": 10401,
      "느낌": 10402,
      "하락": 10403,
      "##지와": 10404,
      "##러스": 10405,
      "##났습니다": 10406,
      "입법": 10407,
      "제정": 10408,
      "##거같": 10409,
      "##리스트": 10410,
      "##뿐만": 10411,
      "##건설": 10412,
      "##령을": 10413,
      "앞에서": 10414,
      "##속히": 10415,
      "국가는": 10416,
      "##행위를": 10417,
      "이기": 10418,
      "청산": 10419,
      "핵심": 10420,
      "##내에": 10421,
      "힘들고": 10422,
      "!!!!!!!!!": 10423,
      "가면": 10424,
      "고생": 10425,
      "불공": 10426,
      "애국": 10427,
      "이로": 10428,
      "자국민": 10429,
      "잡고": 10430,
      "대리": 10431,
      "신설": 10432,
      "은폐": 10433,
      "##대중": 10434,
      "##자동차": 10435,
      "차량을": 10436,
      "##수준이고": 10437,
      "굉장히": 10438,
      "--": 10439,
      "바란다": 10440,
      "오전": 10441,
      "이글을": 10442,
      "자들": 10443,
      "정리": 10444,
      "##단이": 10445,
      "##위는": 10446,
      "##검찰": 10447,
      "공감": 10448,
      "방식": 10449,
      "벗어나": 10450,
      "영화": 10451,
      "증명": 10452,
      "##역시": 10453,
      "##차피": 10454,
      "##물로": 10455,
      "##악한": 10456,
      "사람들도": 10457,
      "한국에서": 10458,
      "##하겠다는": 10459,
      "##12": 10460,
      "##등이": 10461,
      "사건에": 10462,
      "##주시기": 10463,
      "CCTV": 10464,
      "다가": 10465,
      "동영상": 10466,
      "사퇴": 10467,
      "인력": 10468,
      "중지": 10469,
      "##ct": 10470,
      "##하지도": 10471,
      "공소": 10472,
      "집안": 10473,
      "클럽": 10474,
      "##공개": 10475,
      "##위반": 10476,
      "다시한번": 10477,
      "##시간에": 10478,
      "어디서": 10479,
      "감정": 10480,
      "계신": 10481,
      "세상에": 10482,
      "어차피": 10483,
      "연장": 10484,
      "우울": 10485,
      "태어": 10486,
      "##군수사령": 10487,
      "피해가": 10488,
      "정책은": 10489,
      "완전한": 10490,
      "회담": 10491,
      "##과정": 10492,
      "육군군수사령": 10493,
      "역할을": 10494,
      "보증": 10495,
      "부여": 10496,
      "수밖에": 10497,
      "임명": 10498,
      "하려고": 10499,
      "##하였다": 10500,
      "성과": 10501,
      "실현": 10502,
      "후에": 10503,
      "##복무": 10504,
      "##말을": 10505,
      "##처분": 10506,
      "##되었고": 10507,
      "몰카": 10508,
      "무섭": 10509,
      "안좋": 10510,
      "외모": 10511,
      "이것을": 10512,
      "종사": 10513,
      "핵을": 10514,
      "##량을": 10515,
      "##해서는": 10516,
      "아닌데": 10517,
      "조금이라도": 10518,
      "정권이": 10519,
      "계시": 10520,
      "공식": 10521,
      "그로": 10522,
      "방식으로": 10523,
      "안될": 10524,
      "존중": 10525,
      "하네요": 10526,
      "생각한다": 10527,
      "하는거": 10528,
      "미세먼지의": 10529,
      "SNS": 10530,
      "기획": 10531,
      "문의": 10532,
      "조성": 10533,
      "##았고": 10534,
      "##오면": 10535,
      "##별로": 10536,
      "##,,": 10537,
      "정부와": 10538,
      "????": 10539,
      "~~~": 10540,
      "나와서": 10541,
      "사전": 10542,
      "제보": 10543,
      "진료": 10544,
      "첨부": 10545,
      "##것이고": 10546,
      "##법에": 10547,
      "##소가": 10548,
      "##속도로": 10549,
      "북한을": 10550,
      "게다가": 10551,
      "그날": 10552,
      "매달": 10553,
      "야간": 10554,
      "##조를": 10555,
      "##이죠": 10556,
      "##운영": 10557,
      "##le": 10558,
      "##민주주의": 10559,
      "대답": 10560,
      "명목": 10561,
      "출신": 10562,
      "##16": 10563,
      "##카오": 10564,
      "##연히": 10565,
      "아이들의": 10566,
      "경찰의": 10567,
      "해결할": 10568,
      "!!!!!": 10569,
      "걸어": 10570,
      "공기업": 10571,
      "남의": 10572,
      "낮은": 10573,
      "됩니까": 10574,
      "욕설": 10575,
      "정해": 10576,
      "##계로": 10577,
      "##놓은": 10578,
      "202": 10579,
      "그러한": 10580,
      "##만원을": 10581,
      "경우에는": 10582,
      "##해주는": 10583,
      "일반행정공무원들의": 10584,
      "통한": 10585,
      "##건강": 10586,
      "사회가": 10587,
      "8월": 10588,
      "납득": 10589,
      "무죄": 10590,
      "지옥": 10591,
      "특혜": 10592,
      "##9년": 10593,
      "##약을": 10594,
      "##사에서": 10595,
      "연락을": 10596,
      "##ㅋㅋㅋㅋ": 10597,
      "3개월": 10598,
      "과태": 10599,
      "남은": 10600,
      "##유총": 10601,
      "##당하고": 10602,
      "##이야": 10603,
      "##다며": 10604,
      "##부대": 10605,
      "마음을": 10606,
      "4년": 10607,
      "김경": 10608,
      "들여": 10609,
      "밝혔": 10610,
      "선정": 10611,
      "애들": 10612,
      "##문서": 10613,
      "##봐도": 10614,
      "##OO": 10615,
      "고양": 10616,
      "권력을": 10617,
      "그라고": 10618,
      "미세": 10619,
      "설득": 10620,
      "스포츠": 10621,
      "양심": 10622,
      "유통": 10623,
      "##자입니다": 10624,
      "##률이": 10625,
      "##너지": 10626,
      "적극적으로": 10627,
      "공격": 10628,
      "단독": 10629,
      "러시아": 10630,
      "맞지": 10631,
      "죽음": 10632,
      "학생들의": 10633,
      "가능성이": 10634,
      "주장하는": 10635,
      "65": 10636,
      "원전": 10637,
      "충격": 10638,
      "취득": 10639,
      "태어나": 10640,
      "하더라도": 10641,
      "##방해": 10642,
      "##투자": 10643,
      "깨끗한": 10644,
      "선출직": 10645,
      "악용": 10646,
      "예정": 10647,
      "전용": 10648,
      "주인": 10649,
      "##스러": 10650,
      "##뿐입니다": 10651,
      "##연구": 10652,
      "다시는": 10653,
      "어느정도": 10654,
      "강조": 10655,
      "부부": 10656,
      "차지": 10657,
      "한유총": 10658,
      "##정비": 10659,
      "##선생님": 10660,
      "##가격": 10661,
      "##고있": 10662,
      "##겠지": 10663,
      "##겠네요": 10664,
      "##8년": 10665,
      "##게임": 10666,
      "##해야할": 10667,
      "현재의": 10668,
      "되었다": 10669,
      "마시": 10670,
      "삶의": 10671,
      "식당": 10672,
      "아픈": 10673,
      "안하는": 10674,
      "##야할": 10675,
      "##점에서": 10676,
      "##청산": 10677,
      "그럼에도": 10678,
      "말한": 10679,
      "박탈": 10680,
      "배출": 10681,
      "불합": 10682,
      "야동": 10683,
      "없으니": 10684,
      "혐오": 10685,
      "##상담": 10686,
      "##분들의": 10687,
      "##빨리": 10688,
      "20년": 10689,
      "이용하여": 10690,
      "게임을": 10691,
      "궁금합니다": 10692,
      "^^": 10693,
      "내세": 10694,
      "되는데": 10695,
      "마을": 10696,
      "세상이": 10697,
      "아기": 10698,
      "압니다": 10699,
      "역사를": 10700,
      "정당한": 10701,
      "##!!!": 10702,
      "세금이": 10703,
      "52": 10704,
      "것처럼": 10705,
      "국무": 10706,
      "미안": 10707,
      "앞서": 10708,
      "오직": 10709,
      "주범": 10710,
      "##임에도": 10711,
      "##PT": 10712,
      "문재인대통령": 10713,
      "결과가": 10714,
      "기회를": 10715,
      "건가요": 10716,
      "도망": 10717,
      "법은": 10718,
      "수급": 10719,
      "채무": 10720,
      "체육": 10721,
      "합리": 10722,
      "##고에": 10723,
      "##구에": 10724,
      "##된다면": 10725,
      "##혐의": 10726,
      "나무": 10727,
      "몇몇": 10728,
      "소중한": 10729,
      "없음": 10730,
      "##자녀": 10731,
      "##시를": 10732,
      "##치료": 10733,
      "##형을": 10734,
      "학교를": 10735,
      "계속해서": 10736,
      "얼마전": 10737,
      "나오고": 10738,
      "개입": 10739,
      "거기에": 10740,
      "불쌍": 10741,
      "사생활": 10742,
      "세종": 10743,
      "알아야": 10744,
      "욕을": 10745,
      "전직": 10746,
      "총선": 10747,
      "##역을": 10748,
      "##인한": 10749,
      "##안되는": 10750,
      "##율을": 10751,
      "##사람들이": 10752,
      "어려움": 10753,
      "모릅니다": 10754,
      "상상": 10755,
      "술을": 10756,
      "신호": 10757,
      "형편": 10758,
      "##등급": 10759,
      "그렇지": 10760,
      "결과를": 10761,
      "줄어들": 10762,
      "근본적인": 10763,
      "성추행": 10764,
      "가운데": 10765,
      "공정한": 10766,
      "동생": 10767,
      "방지": 10768,
      "분단": 10769,
      "이들": 10770,
      "점을": 10771,
      "##위의": 10772,
      "##하고있습니다": 10773,
      "시키고": 10774,
      "구체": 10775,
      "복무": 10776,
      "형태": 10777,
      "##엔진": 10778,
      "##님은": 10779,
      "가산": 10780,
      "받아서": 10781,
      "인생": 10782,
      "첫째": 10783,
      "키우": 10784,
      "##상에서": 10785,
      "경찰관": 10786,
      "경우도": 10787,
      "공매도": 10788,
      "빨갱이": 10789,
      ").": 10790,
      "것이라": 10791,
      "겨울": 10792,
      "더러운": 10793,
      "법의": 10794,
      "##주면": 10795,
      "##방을": 10796,
      "##분에": 10797,
      "범죄자": 10798,
      "##해주고": 10799,
      "나서서": 10800,
      "관심이": 10801,
      "여름": 10802,
      "해제": 10803,
      "##인다": 10804,
      "##거면": 10805,
      "##르지": 10806,
      "정신적": 10807,
      "부분이": 10808,
      "폐쇄": 10809,
      "황교": 10810,
      "##다보니": 10811,
      "##5일": 10812,
      "하는것": 10813,
      "경찰에": 10814,
      "정말로": 10815,
      "##할수있는": 10816,
      "다니고": 10817,
      "기울": 10818,
      "물을": 10819,
      "법안": 10820,
      "이끌": 10821,
      "정지": 10822,
      "파괴": 10823,
      "횡령": 10824,
      "##던데": 10825,
      "##가지고": 10826,
      "##님의": 10827,
      "##갔습니다": 10828,
      "검증": 10829,
      "당선": 10830,
      "방안을": 10831,
      "안나": 10832,
      "카카오": 10833,
      "##상은": 10834,
      "##회에": 10835,
      "##한거": 10836,
      "##이에": 10837,
      "##아닙": 10838,
      "##청에": 10839,
      "본인은": 10840,
      "02": 10841,
      "곳에서": 10842,
      "말하고": 10843,
      "인도": 10844,
      "추천": 10845,
      "필수": 10846,
      "한명": 10847,
      "##표를": 10848,
      "##사실": 10849,
      "##권력": 10850,
      "##수급": 10851,
      "##감독": 10852,
      "##비리": 10853,
      "만들어주세요": 10854,
      "여성가족부가": 10855,
      "다음날": 10856,
      "독립운동": 10857,
      "성폭력": 10858,
      "페미니즘": 10859,
      "그거": 10860,
      "접근": 10861,
      "회의": 10862,
      "##정치": 10863,
      "##한지": 10864,
      "##용을": 10865,
      "##질이": 10866,
      "말씀드": 10867,
      "그만큼": 10868,
      "목숨을": 10869,
      "소각": 10870,
      "하거나": 10871,
      "하시고": 10872,
      "##후에": 10873,
      "##서관": 10874,
      "##페이지": 10875,
      "##함에": 10876,
      "##BC": 10877,
      "생각은": 10878,
      "정도의": 10879,
      "안전을": 10880,
      "##스럽습니다": 10881,
      "교통사고": 10882,
      "성실": 10883,
      "스마트": 10884,
      "이럴": 10885,
      "참석": 10886,
      "최대한": 10887,
      "축소": 10888,
      "##인들의": 10889,
      "##해준": 10890,
      "##17": 10891,
      "##곳에서": 10892,
      "지금이라도": 10893,
      "문제입니다": 10894,
      "아이들은": 10895,
      "---": 10896,
      "근처": 10897,
      "몰랐": 10898,
      "손을": 10899,
      "수출": 10900,
      "진보": 10901,
      "##시켰": 10902,
      "대출을": 10903,
      "정확히": 10904,
      "막을": 10905,
      "애초": 10906,
      "영상을": 10907,
      "용산": 10908,
      "촬영": 10909,
      "합격": 10910,
      "혼란": 10911,
[...]
